{
  "version": "1.0",
  "truncation": null,
  "padding": null,
  "added_tokens": [
    {
      "id": 0,
      "content": "<s>",
      "single_word": false,
      "lstrip": false,
      "rstrip": false,
      "normalized": false,
      "special": true
    },
    {
      "id": 1,
      "content": "<pad>",
      "single_word": false,
      "lstrip": false,
      "rstrip": false,
      "normalized": false,
      "special": true
    },
    {
      "id": 2,
      "content": "</s>",
      "single_word": false,
      "lstrip": false,
      "rstrip": false,
      "normalized": false,
      "special": true
    },
    {
      "id": 3,
      "content": "<unk>",
      "single_word": false,
      "lstrip": false,
      "rstrip": false,
      "normalized": false,
      "special": true
    },
    {
      "id": 4,
      "content": "<mask>",
      "single_word": false,
      "lstrip": false,
      "rstrip": false,
      "normalized": false,
      "special": true
    },
    {
      "id": 5,
      "content": "<if_mask>",
      "single_word": false,
      "lstrip": false,
      "rstrip": false,
      "normalized": false,
      "special": true
    }
  ],
  "normalizer": null,
  "pre_tokenizer": {
    "type": "ByteLevel",
    "add_prefix_space": false,
    "trim_offsets": true,
    "use_regex": true
  },
  "post_processor": null,
  "decoder": {
    "type": "ByteLevel",
    "add_prefix_space": true,
    "trim_offsets": true,
    "use_regex": true
  },
  "model": {
    "type": "BPE",
    "dropout": null,
    "unk_token": "<unk>",
    "continuing_subword_prefix": null,
    "end_of_word_suffix": null,
    "fuse_unk": false,
    "byte_fallback": false,
    "ignore_merges": false,
    "vocab": {
      "<s>": 0,
      "<pad>": 1,
      "</s>": 2,
      "<unk>": 3,
      "<mask>": 4,
      "<if_mask>": 5,
      "!": 6,
      "\"": 7,
      "#": 8,
      "$": 9,
      "%": 10,
      "&": 11,
      "'": 12,
      "(": 13,
      ")": 14,
      "*": 15,
      "+": 16,
      ",": 17,
      "-": 18,
      ".": 19,
      "/": 20,
      "0": 21,
      "1": 22,
      "2": 23,
      "3": 24,
      "4": 25,
      "5": 26,
      "6": 27,
      "7": 28,
      "8": 29,
      "9": 30,
      ":": 31,
      ";": 32,
      "<": 33,
      "=": 34,
      ">": 35,
      "?": 36,
      "@": 37,
      "A": 38,
      "B": 39,
      "C": 40,
      "D": 41,
      "E": 42,
      "F": 43,
      "G": 44,
      "H": 45,
      "I": 46,
      "J": 47,
      "K": 48,
      "L": 49,
      "M": 50,
      "N": 51,
      "O": 52,
      "P": 53,
      "Q": 54,
      "R": 55,
      "S": 56,
      "T": 57,
      "U": 58,
      "V": 59,
      "W": 60,
      "X": 61,
      "Y": 62,
      "Z": 63,
      "[": 64,
      "\\": 65,
      "]": 66,
      "^": 67,
      "_": 68,
      "`": 69,
      "a": 70,
      "b": 71,
      "c": 72,
      "d": 73,
      "e": 74,
      "f": 75,
      "g": 76,
      "h": 77,
      "i": 78,
      "j": 79,
      "k": 80,
      "l": 81,
      "m": 82,
      "n": 83,
      "o": 84,
      "p": 85,
      "q": 86,
      "r": 87,
      "s": 88,
      "t": 89,
      "u": 90,
      "v": 91,
      "w": 92,
      "x": 93,
      "y": 94,
      "z": 95,
      "{": 96,
      "|": 97,
      "}": 98,
      "~": 99,
      "¡": 100,
      "¢": 101,
      "£": 102,
      "¤": 103,
      "¥": 104,
      "¦": 105,
      "§": 106,
      "¨": 107,
      "©": 108,
      "ª": 109,
      "«": 110,
      "¬": 111,
      "®": 112,
      "¯": 113,
      "°": 114,
      "±": 115,
      "²": 116,
      "³": 117,
      "´": 118,
      "µ": 119,
      "¶": 120,
      "·": 121,
      "¸": 122,
      "¹": 123,
      "º": 124,
      "»": 125,
      "¼": 126,
      "½": 127,
      "¾": 128,
      "¿": 129,
      "Â": 130,
      "Ã": 131,
      "Ä": 132,
      "Å": 133,
      "Æ": 134,
      "È": 135,
      "É": 136,
      "Ê": 137,
      "Ì": 138,
      "Í": 139,
      "Î": 140,
      "Ï": 141,
      "Ð": 142,
      "Ñ": 143,
      "Ò": 144,
      "Ó": 145,
      "Ô": 146,
      "Õ": 147,
      "Ö": 148,
      "×": 149,
      "Ø": 150,
      "Ù": 151,
      "Ú": 152,
      "Û": 153,
      "à": 154,
      "á": 155,
      "â": 156,
      "ã": 157,
      "ä": 158,
      "å": 159,
      "æ": 160,
      "ç": 161,
      "è": 162,
      "é": 163,
      "ê": 164,
      "ë": 165,
      "ì": 166,
      "í": 167,
      "ï": 168,
      "ð": 169,
      "ĉ": 170,
      "Ċ": 171,
      "Ġ": 172,
      "Ģ": 173,
      "ģ": 174,
      "Ĥ": 175,
      "ĥ": 176,
      "Ħ": 177,
      "ħ": 178,
      "Ĩ": 179,
      "ĩ": 180,
      "Ī": 181,
      "ī": 182,
      "Ĭ": 183,
      "ĭ": 184,
      "Į": 185,
      "į": 186,
      "İ": 187,
      "ı": 188,
      "Ĳ": 189,
      "ĳ": 190,
      "Ĵ": 191,
      "ĵ": 192,
      "Ķ": 193,
      "ķ": 194,
      "ĸ": 195,
      "Ĺ": 196,
      "ĺ": 197,
      "Ļ": 198,
      "ļ": 199,
      "Ľ": 200,
      "ľ": 201,
      "Ŀ": 202,
      "ŀ": 203,
      "Ł": 204,
      "ł": 205,
      "Ń": 206,
      "ĠĠ": 207,
      "ĠĠĠĠ": 208,
      "ĠĠĠ": 209,
      "ĠĠĠĠĠĠĠ": 210,
      "on": 211,
      "re": 212,
      "se": 213,
      "st": 214,
      "er": 215,
      "in": 216,
      "at": 217,
      "or": 218,
      "ĠĠĠĠĠĠĠĠĠĠĠ": 219,
      "am": 220,
      "ion": 221,
      "ar": 222,
      "en": 223,
      "Ġ=": 224,
      "de": 225,
      "ur": 226,
      "al": 227,
      "ce": 228,
      "res": 229,
      "pe": 230,
      "Ġt": 231,
      "ame": 232,
      "Ġ\"": 233,
      "he": 234,
      "ent": 235,
      "Ġc": 236,
      "sel": 237,
      "self": 238,
      "name": 239,
      "str": 240,
      "ĠĠĠĠĠĠĠĠ": 241,
      "Ġp": 242,
      "ype": 243,
      "ro": 244,
      "\",": 245,
      "ers": 246,
      "it": 247,
      "Ġa": 248,
      "pon": 249,
      "ue": 250,
      "li": 251,
      "ponse": 252,
      "le": 253,
      "Ġself": 254,
      "Ġi": 255,
      "ct": 256,
      "Ġ:": 257,
      "lin": 258,
      "es": 259,
      "et": 260,
      "Ġ_": 261,
      "ser": 262,
      "arg": 263,
      "response": 264,
      "pt": 265,
      "ap": 266,
      "par": 267,
      "our": 268,
      "up": 269,
      "ror": 270,
      "ĠĠĠĠĠĠĠĠĠĠĠĠĠĠĠ": 271,
      "ource": 272,
      "po": 273,
      "ls": 274,
      "(\"": 275,
      "type": 276,
      "ad": 277,
      "ed": 278,
      "args": 279,
      "co": 280,
      "ation": 281,
      "kw": 282,
      "kwargs": 283,
      "Ġre": 284,
      "Ġstr": 285,
      "an": 286,
      "fi": 287,
      "ut": 288,
      "._": 289,
      "one": 290,
      "ption": 291,
      "ont": 292,
      "param": 293,
      "que": 294,
      "None": 295,
      "ate": 296,
      "mo": 297,
      "id": 298,
      "Ġ#": 299,
      "quest": 300,
      "ex": 301,
      "Ġ{": 302,
      "Ġthe": 303,
      "Ġo": 304,
      "Ġs": 305,
      "ol": 306,
      "resource": 307,
      "Ġin": 308,
      "un": 309,
      "for": 310,
      "Ġb": 311,
      "ing": 312,
      "lo": 313,
      "def": 314,
      "ag": 315,
      "url": 316,
      "ĠNone": 317,
      "ersion": 318,
      "ial": 319,
      "roup": 320,
      "ri": 321,
      "as": 322,
      "version": 323,
      "di": 324,
      "ul": 325,
      "iz": 326,
      "pop": 327,
      "head": 328,
      "Ġ)": 329,
      "ĠA": 330,
      "urn": 331,
      "mode": 332,
      "ot": 333,
      "group": 334,
      "turn": 335,
      "Ġif": 336,
      "Res": 337,
      "qu": 338,
      "ac": 339,
      "rror": 340,
      "ke": 341,
      "ult": 342,
      "Error": 343,
      "\":": 344,
      "Ġw": 345,
      "Ġn": 346,
      "error": 347,
      "lient": 348,
      "ab": 349,
      "\")": 350,
      "headers": 351,
      "Ġor": 352,
      "line": 353,
      "Ġm": 354,
      "):": 355,
      "Ġresource": 356,
      "\"\"": 357,
      "ĠT": 358,
      "Ġ*": 359,
      "ure": 360,
      "vi": 361,
      "sc": 362,
      "Ġ{}": 363,
      "request": 364,
      "ub": 365,
      "val": 366,
      "ializ": 367,
      "Ġis": 368,
      "ment": 369,
      "key": 370,
      "pi": 371,
      "Ġof": 372,
      "ontent": 373,
      "ra": 374,
      "Ġreturn": 375,
      "serializ": 376,
      "peline": 377,
      "00": 378,
      "tt": 379,
      "get": 380,
      "con": 381,
      "Ġresponse": 382,
      "()": 383,
      "od": 384,
      "Re": 385,
      "models": 386,
      "ling": 387,
      "te": 388,
      "red": 389,
      "ext": 390,
      "ĠĠĠĠĠĠĠĠĠĠĠĠĠĠĠĠĠĠĠ": 391,
      "Ġtype": 392,
      "age": 393,
      "Ġ{})": 394,
      "zure": 395,
      "Ġkwargs": 396,
      "mat": 397,
      "wor": 398,
      "scri": 399,
      "ER": 400,
      "il": 401,
      "Ġde": 402,
      "ĠC": 403,
      "Ġ\"\"\"": 404,
      "dat": 405,
      "scription": 406,
      "api": 407,
      "ch": 408,
      "per": 409,
      "Ġ**": 410,
      "params": 411,
      "int": 412,
      "Ġf": 413,
      "im": 414,
      "ase": 415,
      "us": 416,
      "ttp": 417,
      "Ġfor": 418,
      "yn": 419,
      "ve": 420,
      "able": 421,
      "Ġto": 422,
      "Ġcls": 423,
      "cation": 424,
      "sert": 425,
      "ction": 426,
      "ubscription": 427,
      "ync": 428,
      "to": 429,
      "Ġ-": 430,
      "Ġe": 431,
      "fig": 432,
      "ss": 433,
      "ĠO": 434,
      "value": 435,
      "Ġname": 436,
      "\"]": 437,
      "map": 438,
      "amet": 439,
      "azure": 440,
      "pa": 441,
      "om": 442,
      "client": 443,
      "Ġas": 444,
      "ĠThe": 445,
      "[\"": 446,
      "Ġpar": 447,
      "list": 448,
      "20": 449,
      "olling": 450,
      "pro": 451,
      "Ġerror": 452,
      "Ġ'": 453,
      "ipeline": 454,
      "format": 455,
      "ptional": 456,
      "=_": 457,
      "Ġnot": 458,
      "result": 459,
      "=\"": 460,
      "ken": 461,
      "word": 462,
      "stat": 463,
      "unt": 464,
      "vice": 465,
      "ĠOptional": 466,
      "put": 467,
      "ith": 468,
      "code": 469,
      "Ġ~": 470,
      "Ġcontent": 471,
      "date": 472,
      "Resource": 473,
      "ĠAn": 474,
      "qui": 475,
      "Response": 476,
      "Ġdi": 477,
      "',": 478,
      "data": 479,
      "keyword": 480,
      "ist": 481,
      "ĠRe": 482,
      "config": 483,
      "ĠĠĠĠĠĠĠĠĠĠĠĠĠĠĠĠ": 484,
      "status": 485,
      "eth": 486,
      "app": 487,
      "est": 488,
      "Ġ->": 489,
      "ath": 490,
      "nd": 491,
      "Ġapi": 492,
      "ethod": 493,
      "ver": 494,
      "end": 495,
      "quired": 496,
      "Ġ(": 497,
      "um": 498,
      "ise": 499,
      "Ġpipeline": 500,
      "ive": 501,
      "pace": 502,
      "ks": 503,
      "em": 504,
      "Http": 505,
      "serialize": 506,
      "init": 507,
      "ameters": 508,
      "ust": 509,
      "Ġ[": 510,
      "Ġdeserializ": 511,
      "son": 512,
      "Ġdef": 513,
      "ĠI": 514,
      "ime": 515,
      "__": 516,
      "ay": 517,
      "sit": 518,
      "ck": 519,
      "all": 520,
      "ĠRequired": 521,
      "th": 522,
      "json": 523,
      "ain": 524,
      "Name": 525,
      "raise": 526,
      "count": 527,
      "Ġth": 528,
      "ect": 529,
      "sen": 530,
      "gn": 531,
      "ĠD": 532,
      "Ġst": 533,
      "ti": 534,
      "Ġdeserialized": 535,
      "ĠP": 536,
      "ault": 537,
      "Ġbe": 538,
      "ĠAny": 539,
      "AL": 540,
      "Ġvalue": 541,
      "('": 542,
      "Ġ==": 543,
      "Ġpolling": 544,
      "ance": 545,
      "Ġrequest": 546,
      "Ġ4": 547,
      "link": 548,
      "ream": 549,
      "is": 550,
      "update": 551,
      "ĠS": 552,
      "token": 553,
      "Ġ}": 554,
      "cept": 555,
      "01": 556,
      "ter": 557,
      "SER": 558,
      "))": 559,
      "IZ": 560,
      "paramtype": 561,
      "subscription": 562,
      "Ġassert": 563,
      "IAL": 564,
      "service": 565,
      "next": 566,
      "kspace": 567,
      "set": 568,
      "IZER": 569,
      "SERIAL": 570,
      "SERIALIZER": 571,
      "Ġd": 572,
      "out": 573,
      "rue": 574,
      "pipeline": 575,
      "),": 576,
      "Ġcase": 577,
      "deserialize": 578,
      "ery": 579,
      "sync": 580,
      "Type": 581,
      "file": 582,
      "pl": 583,
      "sitive": 584,
      "Ġl": 585,
      "Ġpro": 586,
      "dict": 587,
      "ĠResource": 588,
      "sensitive": 589,
      "ity": 590,
      "point": 591,
      "of": 592,
      "ĠF": 593,
      "ore": 594,
      "ort": 595,
      "ody": 596,
      "Ġcont": 597,
      "Ġex": 598,
      "202": 599,
      "lic": 600,
      "run": 601,
      "ass": 602,
      "Ġ1": 603,
      "core": 604,
      "stance": 605,
      "Ġtest": 606,
      "ler": 607,
      "alse": 608,
      "ren": 609,
      "reate": 610,
      "ob": 611,
      "Ġresult": 612,
      "ments": 613,
      "peration": 614,
      "lication": 615,
      "cess": 616,
      "Ġand": 617,
      "ĠM": 618,
      "ic": 619,
      "mt": 620,
      "path": 621,
      "ele": 622,
      "model": 623,
      "],": 624,
      "Ġh": 625,
      "ran": 626,
      "HttpResponse": 627,
      "ew": 628,
      "by": 629,
      "Ġwith": 630,
      "HttpResponseError": 631,
      "com": 632,
      "query": 633,
      "content": 634,
      "RO": 635,
      "ild": 636,
      "assert": 637,
      "ĠL": 638,
      "Ġsubscription": 639,
      "gmt": 640,
      "ait": 641,
      "cont": 642,
      "method": 643,
      "ack": 644,
      "ject": 645,
      "el": 646,
      "ptions": 647,
      "ry": 648,
      "ĉĉ": 649,
      "Ex": 650,
      "rom": 651,
      "port": 652,
      "--": 653,
      "04": 654,
      "mgmt": 655,
      "return": 656,
      "ef": 657,
      "Ġac": 658,
      "ning": 659,
      "uth": 660,
      "uct": 661,
      "Ġlist": 662,
      "ode": 663,
      "Ġget": 664,
      "oller": 665,
      "ĠU": 666,
      "__(": 667,
      "sed": 668,
      "ai": 669,
      "Ġclient": 670,
      "Ġpy": 671,
      "wait": 672,
      "cl": 673,
      "Ġheaders": 674,
      "Not": 675,
      "ential": 676,
      "Ġwor": 677,
      "Ġcon": 678,
      "Ġel": 679,
      "Ġse": 680,
      "Ġdis": 681,
      "ties": 682,
      "perties": 683,
      "redential": 684,
      "and": 685,
      "fe": 686,
      "und": 687,
      "ĠĠĠĠĠĠĠĠĠĠĠĠĠĠĠĠĠĠĠĠĠĠĠ": 688,
      "ainer": 689,
      "Ġ0": 690,
      "Ġelse": 691,
      "ess": 692,
      "application": 693,
      "insensitive": 694,
      "Ġawait": 695,
      "(_": 696,
      "ROP": 697,
      "http": 698,
      "ax": 699,
      "ĠAsync": 700,
      "async": 701,
      "ach": 702,
      "oc": 703,
      "ROPoller": 704,
      "uild": 705,
      "eng": 706,
      "Ġu": 707,
      "]:": 708,
      "ams": 709,
      "endpoint": 710,
      "fied": 711,
      "ow": 712,
      "ata": 713,
      "/{": 714,
      "pol": 715,
      "Ġthat": 716,
      "ip": 717,
      "ĠCon": 718,
      "0000": 719,
      "orage": 720,
      "Ġparams": 721,
      "licy": 722,
      "uments": 723,
      "Ġlo": 724,
      "ated": 725,
      "gnore": 726,
      "tes": 727,
      "ne": 728,
      "ast": 729,
      "Id": 730,
      "\"),": 731,
      "ĠFalse": 732,
      "Ġg": 733,
      "ule": 734,
      "struct": 735,
      "art": 736,
      "Ġraise": 737,
      "cted": 738,
      "ool": 739,
      "Ġworkspace": 740,
      "raises": 741,
      "Ġparameters": 742,
      "Ġignore": 743,
      "ig": 744,
      "Ġdisable": 745,
      "parameters": 746,
      "polling": 747,
      "pre": 748,
      "header": 749,
      "Group": 750,
      "Ġbuild": 751,
      "lob": 752,
      "Request": 753,
      "atch": 754,
      "stream": 755,
      "lint": 756,
      "ĠResourceNot": 757,
      "Ġpylint": 758,
      "In": 759,
      "enti": 760,
      "rtype": 761,
      "efault": 762,
      "arguments": 763,
      "Ġbody": 764,
      "test": 765,
      "achin": 766,
      "ength": 767,
      "ize": 768,
      "ON": 769,
      "Ġit": 770,
      "ĠConstruct": 771,
      "sh": 772,
      "nection": 773,
      "ple": 774,
      "exce": 775,
      "['": 776,
      "ong": 777,
      "ill": 778,
      "ĠB": 779,
      "Ġdata": 780,
      "account": 781,
      "Ġ__": 782,
      "ustom": 783,
      "..": 784,
      "Con": 785,
      "ameter": 786,
      "create": 787,
      "ound": 788,
      "Ġ+": 789,
      "Ġgroup": 790,
      "Ġmodel": 791,
      "ĠTrue": 792,
      "')": 793,
      "Ġy": 794,
      "uration": 795,
      "[_": 796,
      "qual": 797,
      "}/": 798,
      "exceptions": 799,
      "tem": 800,
      "ge": 801,
      "Ġcom": 802,
      "ly": 803,
      "Ac": 804,
      "Ġ3": 805,
      "St": 806,
      "Ġ2": 807,
      "uation": 808,
      "uster": 809,
      "Ġan": 810,
      "che": 811,
      "ory": 812,
      "cls": 813,
      "ho": 814,
      "AR": 815,
      "Ġpre": 816,
      "Polling": 817,
      "time": 818,
      "Ġkey": 819,
      "**": 820,
      "elem": 821,
      "Ġurl": 822,
      "low": 823,
      "gi": 824,
      "ET": 825,
      "bytes": 826,
      "output": 827,
      "List": 828,
      "ign": 829,
      "load": 830,
      "Ġx": 831,
      "instance": 832,
      "Ġsup": 833,
      "vir": 834,
      "length": 835,
      "True": 836,
      "ator": 837,
      "essage": 838,
      "access": 839,
      "rent": 840,
      "Ġcl": 841,
      "']": 842,
      ".__": 843,
      "arning": 844,
      "Ġwill": 845,
      "ails": 846,
      "ail": 847,
      "sion": 848,
      "Ġ*,": 849,
      "09": 850,
      "Ġfrom": 851,
      "inuation": 852,
      "HttpRequest": 853,
      "read": 854,
      "work": 855,
      "dified": 856,
      "ition": 857,
      "Ġv": 858,
      "ci": 859,
      "eld": 860,
      "rect": 861,
      "Pro": 862,
      "view": 863,
      "att": 864,
      "Auth": 865,
      "ĠHttpRequest": 866,
      "parse": 867,
      "lete": 868,
      "resourceGroup": 869,
      "long": 870,
      "LROPoller": 871,
      "Ġservice": 872,
      "ord": 873,
      "gin": 874,
      "vid": 875,
      "ings": 876,
      "plate": 877,
      "fo": 878,
      "Ġfi": 879,
      "ĠDefault": 880,
      "ĠCls": 881,
      "ĠClsType": 882,
      "Ġmo": 883,
      "Ġpath": 884,
      "Ġen": 885,
      "gistr": 886,
      "nion": 887,
      "ists": 888,
      "ary": 889,
      "Ġon": 890,
      "entication": 891,
      "\"))": 892,
      "Ġstream": 893,
      "rans": 894,
      "Ġim": 895,
      "job": 896,
      "rap": 897,
      "met": 898,
      "ind": 899,
      "Ġid": 900,
      "ĠIO": 901,
      "unction": 902,
      "tected": 903,
      "ht": 904,
      "Ġr": 905,
      ").": 906,
      "valid": 907,
      "item": 908,
      "day": 909,
      "200": 910,
      "Mo": 911,
      "Ġinstance": 912,
      "():": 913,
      "\".": 914,
      "Ġmax": 915,
      "vent": 916,
      "For": 917,
      "pp": 918,
      "Ġmap": 919,
      "cal": 920,
      "Equal": 921,
      "ARM": 922,
      "aged": 923,
      "Ġaccept": 924,
      "},": 925,
      "act": 926,
      "if": 927,
      "ec": 928,
      "ep": 929,
      "ies": 930,
      "ms": 931,
      "raw": 932,
      "Ġoperation": 933,
      "add": 934,
      "user": 935,
      "own": 936,
      "cope": 937,
      "arget": 938,
      "ization": 939,
      "Ġtime": 940,
      "ded": 941,
      "inter": 942,
      "Found": 943,
      "workspace": 944,
      "protected": 945,
      "Ġob": 946,
      "Result": 947,
      "Ġwh": 948,
      "ĠClient": 949,
      "Method": 950,
      "Ser": 951,
      "entity": 952,
      "dex": 953,
      "En": 954,
      "rint": 955,
      "Ġthis": 956,
      "kip": 957,
      "FoundError": 958,
      "ract": 959,
      "loy": 960,
      "adata": 961,
      "Authentication": 962,
      "\"\"\"": 963,
      "Ġal": 964,
      "riv": 965,
      "assertEqual": 966,
      "Ġint": 967,
      "olicy": 968,
      "gistry": 969,
      "ĠHttpResponseError": 970,
      "Ġby": 971,
      "ual": 972,
      "achine": 973,
      "from": 974,
      "delete": 975,
      "Cont": 976,
      "ponent": 977,
      "Ġmin": 978,
      "gg": 979,
      "Ġ404": 980,
      "Exists": 981,
      "form": 982,
      "ard": 983,
      "ExistsError": 984,
      "Ġfile": 985,
      "AuthenticationError": 986,
      "op": 987,
      "Ġsuper": 988,
      "col": 989,
      "ssion": 990,
      "Ġext": 991,
      "dule": 992,
      "ĠResourceNotFoundError": 993,
      "Ġ409": 994,
      "ĠResourceExistsError": 995,
      "oft": 996,
      "ĠClientAuthenticationError": 997,
      "ĠR": 998,
      "ĠJ": 999,
      "ample": 1000,
      "etwork": 1001,
      "Ġcall": 1002,
      "[\"_": 1003,
      "iv": 1004,
      "Ġ{\"": 1005,
      "rence": 1006,
      "anage": 1007,
      "Ġ401": 1008,
      "]]": 1009,
      "peci": 1010,
      "':": 1011,
      "start": 1012,
      "properties": 1013,
      "cur": 1014,
      "Format": 1015,
      "lib": 1016,
      "ress": 1017,
      "SON": 1018,
      "storage": 1019,
      "----": 1020,
      "Client": 1021,
      "Ġset": 1022,
      "anagement": 1023,
      "Accept": 1024,
      "running": 1025,
      "rivate": 1026,
      "viron": 1027,
      "size": 1028,
      "à¸": 1029,
      "ĠV": 1030,
      "ite": 1031,
      "Ġcustom": 1032,
      "Ġcredential": 1033,
      "Ġch": 1034,
      "False": 1035,
      "soft": 1036,
      "ference": 1037,
      "ags": 1038,
      "Modified": 1039,
      "ud": 1040,
      "state": 1041,
      "subscriptionId": 1042,
      "icro": 1043,
      "Ġtoken": 1044,
      "bo": 1045,
      "arch": 1046,
      "lay": 1047,
      "policy": 1048,
      "Ġisinstance": 1049,
      "ant": 1050,
      "Ġversion": 1051,
      "Ġprint": 1052,
      "Ġnext": 1053,
      "ma": 1054,
      "ARMError": 1055,
      "ARMErrorFormat": 1056,
      "cre": 1057,
      "dd": 1058,
      "interval": 1059,
      "ither": 1060,
      "icrosoft": 1061,
      "Async": 1062,
      "])": 1063,
      "loyment": 1064,
      "Ġeither": 1065,
      "not": 1066,
      "Ġare": 1067,
      "={": 1068,
      "Ġ(\"": 1069,
      "ĠUnion": 1070,
      "Ġuser": 1071,
      "ener": 1072,
      "Ġaccount": 1073,
      "ateg": 1074,
      "apping": 1075,
      "ey": 1076,
      "Ġfunction": 1077,
      "ument": 1078,
      "we": 1079,
      "utable": 1080,
      "(),": 1081,
      "provid": 1082,
      "are": 1083,
      "Ġcluster": 1084,
      "back": 1085,
      "container": 1086,
      "ict": 1087,
      "doc": 1088,
      "vert": 1089,
      "GET": 1090,
      "Key": 1091,
      "ric": 1092,
      "Ġraw": 1093,
      "10": 1094,
      "Ġinsensitive": 1095,
      "services": 1096,
      "ace": 1097,
      "abase": 1098,
      "ache": 1099,
      "Ġ<": 1100,
      "figuration": 1101,
      "resourceGroupName": 1102,
      "der": 1103,
      "initial": 1104,
      "preview": 1105,
      "py": 1106,
      "orch": 1107,
      "].": 1108,
      "Operation": 1109,
      "inition": 1110,
      "Ġbool": 1111,
      "Service": 1112,
      "[~": 1113,
      "Ġout": 1114,
      "())": 1115,
      "Azure": 1116,
      "12": 1117,
      "liday": 1118,
      "lif": 1119,
      "sett": 1120,
      "ĠĠĠĠĠĠĠĠĠĠĠĠĠĠĠĠĠĠĠĠĠĠĠĠĠĠĠĠĠĠĠĠ": 1121,
      "ĠLROPoller": 1122,
      "ib": 1123,
      "blob": 1124,
      "ĠPipeline": 1125,
      "ang": 1126,
      "Content": 1127,
      "ight": 1128,
      "Data": 1129,
      "ĠAsyncLROPoller": 1130,
      "fic": 1131,
      "Ġproperties": 1132,
      "ĠN": 1133,
      "heck": 1134,
      "ages": 1135,
      "cond": 1136,
      "with": 1137,
      "ĠAzure": 1138,
      "\"],": 1139,
      "Get": 1140,
      "afe": 1141,
      "lock": 1142,
      "ĠName": 1143,
      "operation": 1144,
      "ĠPar": 1145,
      "ST": 1146,
      "mit": 1147,
      "Ġ),": 1148,
      "Ġdirect": 1149,
      "End": 1150,
      "input": 1151,
      "Ġobject": 1152,
      "ModifiedError": 1153,
      "space": 1154,
      "ĠĠĠĠĠĠĠĠĠĠĠĠĠĠĠĠĠĠĠĠĠĠĠĠĠĠĠ": 1155,
      "Ġlen": 1156,
      "pute": 1157,
      "Ġ304": 1158,
      "etime": 1159,
      "min": 1160,
      "Mapping": 1161,
      "tern": 1162,
      "ĠResourceNotModifiedError": 1163,
      "Ġ},": 1164,
      "vironment": 1165,
      "umb": 1166,
      "RL": 1167,
      "umn": 1168,
      "body": 1169,
      "Ġcreate": 1170,
      "ĠMutable": 1171,
      "Ġ`": 1172,
      "ff": 1173,
      "PollingMethod": 1174,
      "Ġskip": 1175,
      "cord": 1176,
      "tual": 1177,
      "ĠJSON": 1178,
      "connection": 1179,
      "ake": 1180,
      "Ġdat": 1181,
      "Ġendpoint": 1182,
      "Ġtem": 1183,
      "AT": 1184,
      "Ġelif": 1185,
      "sor": 1186,
      "be": 1187,
      "rappe": 1188,
      "Ġ>": 1189,
      "image": 1190,
      "Ġtry": 1191,
      "Endpoint": 1192,
      "Ġdefault": 1193,
      "Ġcol": 1194,
      "metadata": 1195,
      "2022": 1196,
      "info": 1197,
      "//": 1198,
      "iter": 1199,
      "class": 1200,
      "ĠPipelineResponse": 1201,
      "201": 1202,
      "Ġcontinuation": 1203,
      "pare": 1204,
      "ence": 1205,
      "ĠW": 1206,
      "02": 1207,
      "base": 1208,
      "range": 1209,
      "Ġro": 1210,
      "ctions": 1211,
      "Up": 1212,
      "Ġwe": 1213,
      "fails": 1214,
      "ute": 1215,
      "Ġpass": 1216,
      "Set": 1217,
      "ution": 1218,
      "ĠMutableMapping": 1219,
      "text": 1220,
      "Ġspeci": 1221,
      "quot": 1222,
      "failsafe": 1223,
      "ask": 1224,
      "Ġdict": 1225,
      "av": 1226,
      "led": 1227,
      "Credential": 1228,
      "match": 1229,
      "Ġ\"/": 1230,
      "lter": 1231,
      "IN": 1232,
      "Ġvalues": 1233,
      "clu": 1234,
      "Ġexcept": 1235,
      "Ġres": 1236,
      ".\"\"\"": 1237,
      "Ġ%": 1238,
      "Microsoft": 1239,
      "assed": 1240,
      "Ġsh": 1241,
      "ten": 1242,
      "message": 1243,
      "Ġparameter": 1244,
      "Ġcontainer": 1245,
      "convert": 1246,
      "ok": 1247,
      "Ġmethod": 1248,
      "field": 1249,
      "Ġup": 1250,
      "ĠURL": 1251,
      "Ġquery": 1252,
      "location": 1253,
      "fter": 1254,
      "Ġco": 1255,
      "Ġpassed": 1256,
      "ql": 1257,
      "Ġ\"_": 1258,
      "EN": 1259,
      "his": 1260,
      "ml": 1261,
      "rite": 1262,
      "Ġstorage": 1263,
      "machin": 1264,
      "Ġnew": 1265,
      "jo": 1266,
      "__(**": 1267,
      "call": 1268,
      "Ġupdate": 1269,
      "ray": 1270,
      "providers": 1271,
      "ErrorResponse": 1272,
      "ĠIn": 1273,
      "Ġle": 1274,
      "items": 1275,
      "Ġreturns": 1276,
      "Ġun": 1277,
      "...": 1278,
      "umber": 1279,
      "Ġextract": 1280,
      "uld": 1281,
      "://": 1282,
      "os": 1283,
      "ave": 1284,
      "alue": 1285,
      "append": 1286,
      "sub": 1287,
      "ĠEx": 1288,
      "Ġinput": 1289,
      "very": 1290,
      "Ġcan": 1291,
      "Lo": 1292,
      "().__": 1293,
      "ates": 1294,
      "template": 1295,
      "index": 1296,
      "pected": 1297,
      "PI": 1298,
      "elearning": 1299,
      "machinelearning": 1300,
      "11": 1301,
      "continuation": 1302,
      "dis": 1303,
      "ility": 1304,
      "Ġapp": 1305,
      "loat": 1306,
      "machinelearningservices": 1307,
      "db": 1308,
      "Ġ):": 1309,
      "Ġasync": 1310,
      "ear": 1311,
      "parsed": 1312,
      "Ġtemplate": 1313,
      "delay": 1314,
      "ps": 1315,
      "ature": 1316,
      "Item": 1317,
      "subscriptions": 1318,
      "join": 1319,
      "\"},": 1320,
      "05": 1321,
      "Ġli": 1322,
      "sum": 1323,
      "'s": 1324,
      "server": 1325,
      "Ġcallable": 1326,
      "attr": 1327,
      "Par": 1328,
      "bool": 1329,
      "comp": 1330,
      "store": 1331,
      "abel": 1332,
      "settings": 1333,
      "ile": 1334,
      "ployment": 1335,
      "Com": 1336,
      "ĠParameter": 1337,
      "array": 1338,
      "Mode": 1339,
      "credential": 1340,
      "Ho": 1341,
      "accept": 1342,
      "reg": 1343,
      "Version": 1344,
      "ĠSt": 1345,
      "ĠThis": 1346,
      "clo": 1347,
      "Policy": 1348,
      "gr": 1349,
      "gger": 1350,
      "rib": 1351,
      "options": 1352,
      "2024": 1353,
      "Ġtarget": 1354,
      "rol": 1355,
      "Paged": 1356,
      "aly": 1357,
      "erti": 1358,
      "Cl": 1359,
      "Ġadd": 1360,
      "len": 1361,
      "Ġurllib": 1362,
      "attern": 1363,
      "auth": 1364,
      "stem": 1365,
      "net": 1366,
      "da": 1367,
      "Ġk": 1368,
      "string": 1369,
      "max": 1370,
      "Ġtorch": 1371,
      "Ġprepare": 1372,
      "ug": 1373,
      "Ġno": 1374,
      "clude": 1375,
      "ystem": 1376,
      "anaged": 1377,
      "Ġbegin": 1378,
      "nect": 1379,
      "sent": 1380,
      "ĠĠĠĠĠ": 1381,
      "log": 1382,
      "Ġcre": 1383,
      "fication": 1384,
      "Ġimport": 1385,
      "datetime": 1386,
      "RE": 1387,
      "trans": 1388,
      "zA": 1389,
      "Ġall": 1390,
      "configuration": 1391,
      "(**": 1392,
      "ĠBody": 1393,
      "default": 1394,
      "Ġregistry": 1395,
      "Ġiter": 1396,
      "rain": 1397,
      "Ġmessage": 1398,
      "flow": 1399,
      "ir": 1400,
      "ari": 1401,
      "Ġdoc": 1402,
      "ape": 1403,
      "Ġjson": 1404,
      "rg": 1405,
      "scope": 1406,
      "Ġblob": 1407,
      "ock": 1408,
      "source": 1409,
      "ĠK": 1410,
      "quote": 1411,
      "Ġsource": 1412,
      "ide": 1413,
      "ertific": 1414,
      "Ġstate": 1415,
      "Ġitem": 1416,
      "object": 1417,
      "cry": 1418,
      "2023": 1419,
      "ty": 1420,
      "sche": 1421,
      "Ġcur": 1422,
      "ĠContent": 1423,
      "Ġhas": 1424,
      "Ġuse": 1425,
      "Ġjob": 1426,
      "00000000": 1427,
      "last": 1428,
      "ĠIf": 1429,
      "ability": 1430,
      "mi": 1431,
      "ĠDict": 1432,
      "Container": 1433,
      "2025": 1434,
      "amb": 1435,
      "Ġpo": 1436,
      "mand": 1437,
      "Ret": 1438,
      "90": 1439,
      "my": 1440,
      "Ġwhen": 1441,
      "node": 1442,
      "Ġconnection": 1443,
      "ink": 1444,
      "queue": 1445,
      "tr": 1446,
      "anization": 1447,
      "='": 1448,
      "Ġoutput": 1449,
      "covery": 1450,
      "Ġcast": 1451,
      "Ġlocation": 1452,
      "Ġspecified": 1453,
      "Ġcheck": 1454,
      "begin": 1455,
      "Ġ[]": 1456,
      "ther": 1457,
      "resourceGroups": 1458,
      "Ġheader": 1459,
      "Ġscope": 1460,
      "virtual": 1461,
      "Ġrange": 1462,
      "uto": 1463,
      "fix": 1464,
      "Ġ|": 1465,
      "scal": 1466,
      "hould": 1467,
      "Ġstart": 1468,
      "ts": 1469,
      "abled": 1470,
      "'),": 1471,
      "Test": 1472,
      "ible": 1473,
      "ension": 1474,
      "([": 1475,
      "unc": 1476,
      "Ġdescription": 1477,
      "ception": 1478,
      "Base": 1479,
      "Ġat": 1480,
      "Ġos": 1481,
      "Ġstring": 1482,
      "ambda": 1483,
      "Ġpattern": 1484,
      "inal": 1485,
      "Default": 1486,
      "\"]]": 1487,
      "Holiday": 1488,
      "ertificate": 1489,
      "ĉĉĉ": 1490,
      "component": 1491,
      "fier": 1492,
      "dir": 1493,
      "ĠRet": 1494,
      "Ġrun": 1495,
      "iven": 1496,
      "Ġinit": 1497,
      "idth": 1498,
      "description": 1499,
      "Ġlink": 1500,
      "pen": 1501,
      "Configuration": 1502,
      "serv": 1503,
      "06": 1504,
      "Ġmet": 1505,
      "Ġyour": 1506,
      "Ġhe": 1507,
      "To": 1508,
      "write": 1509,
      "Ġshould": 1510,
      "ignment": 1511,
      "ĠE": 1512,
      "Ġtrans": 1513,
      "ID": 1514,
      "ackage": 1515,
      "uri": 1516,
      "Qu": 1517,
      "Ġsub": 1518,
      "ĠH": 1519,
      "Ġauth": 1520,
      "Ġdo": 1521,
      "\"}": 1522,
      "do": 1523,
      "Ġtags": 1524,
      "event": 1525,
      "ations": 1526,
      "duct": 1527,
      "ification": 1528,
      "lection": 1529,
      "Ġlro": 1530,
      "too": 1531,
      "ret": 1532,
      "ĠAPI": 1533,
      "earning": 1534,
      "][": 1535,
      "Ġvalid": 1536,
      "place": 1537,
      "Ġsche": 1538,
      "select": 1539,
      "check": 1540,
      "table": 1541,
      "vision": 1542,
      "alueError": 1543,
      "Ġmock": 1544,
      "Ġpol": 1545,
      "Connection": 1546,
      "ull": 1547,
      "compress": 1548,
      "64": 1549,
      "Ġgiven": 1550,
      "obj": 1551,
      "attrib": 1552,
      "sp": 1553,
      "19": 1554,
      "fact": 1555,
      "target": 1556,
      "uc": 1557,
      "BB": 1558,
      "Ġconfig": 1559,
      "timeout": 1560,
      "no": 1561,
      "Properties": 1562,
      "08": 1563,
      "Update": 1564,
      "ich": 1565,
      "tails": 1566,
      "serial": 1567,
      "Ġcode": 1568,
      "Ġused": 1569,
      "Ġz": 1570,
      "nown": 1571,
      "lt": 1572,
      "Ġclo": 1573,
      "Ġmain": 1574,
      "ION": 1575,
      "ItemPaged": 1576,
      "44": 1577,
      "action": 1578,
      "Ġnode": 1579,
      "ine": 1580,
      "ice": 1581,
      "ted": 1582,
      "Ġper": 1583,
      "Ġfield": 1584,
      "Stat": 1585,
      "Sett": 1586,
      "cluster": 1587,
      "Model": 1588,
      "old": 1589,
      "ported": 1590,
      "ĠList": 1591,
      "AA": 1592,
      "Ġass": 1593,
      "Ġ20": 1594,
      "03": 1595,
      "AzureCredential": 1596,
      "ĠĠĠĠĠĠĠĠĠĠĠĠĠĠĠĠĠĠĠĠĠĠĠĠ": 1597,
      "ĠG": 1598,
      "tition": 1599,
      "module": 1600,
      "custom": 1601,
      "Ġcreated": 1602,
      "Ġpolicy": 1603,
      "ll": 1604,
      "Ġ[\"": 1605,
      "Ġ/": 1606,
      "Ġonly": 1607,
      "dom": 1608,
      "ager": 1609,
      "cs": 1610,
      "After": 1611,
      "network": 1612,
      "No": 1613,
      "Ġprivate": 1614,
      "row": 1615,
      "Ġcurrent": 1616,
      "use": 1617,
      "ategy": 1618,
      "utes": 1619,
      "column": 1620,
      "Ġq": 1621,
      "Ġret": 1622,
      "IO": 1623,
      "ownload": 1624,
      "Ġtimeout": 1625,
      "cache": 1626,
      "32": 1627,
      "onit": 1628,
      "project": 1629,
      "exec": 1630,
      "callback": 1631,
      "CT": 1632,
      "Ġimage": 1633,
      "Union": 1634,
      "Im": 1635,
      "move": 1636,
      "man": 1637,
      "play": 1638,
      "^[": 1639,
      "ner": 1640,
      "Ġexpected": 1641,
      "ĠSer": 1642,
      "batch": 1643,
      "Machine": 1644,
      "ph": 1645,
      "amp": 1646,
      "rst": 1647,
      "Ġwhich": 1648,
      "vail": 1649,
      "orization": 1650,
      "rest": 1651,
      "entifier": 1652,
      "gener": 1653,
      "definition": 1654,
      "lambda": 1655,
      "Ġclass": 1656,
      "DefaultAzureCredential": 1657,
      "cryption": 1658,
      "cy": 1659,
      "registry": 1660,
      "abric": 1661,
      "Ġproject": 1662,
      "vel": 1663,
      "Ġbytes": 1664,
      "Ġfilter": 1665,
      "Ġdeployment": 1666,
      "Ġevent": 1667,
      "mb": 1668,
      "Ġ5": 1669,
      "pool": 1670,
      "xy": 1671,
      ":`": 1672,
      "2020": 1673,
      "ref": 1674,
      "ĠDay": 1675,
      "Location": 1676,
      "ategory": 1677,
      "uple": 1678,
      "ctype": 1679,
      "--------": 1680,
      "}\")": 1681,
      "new": 1682,
      "context": 1683,
      "angu": 1684,
      "____": 1685,
      "session": 1686,
      "ak": 1687,
      "ities": 1688,
      "Ġupdat": 1689,
      "25": 1690,
      "Ġlog": 1691,
      "erson": 1692,
      "parent": 1693,
      "Wor": 1694,
      "ree": 1695,
      "resh": 1696,
      "pri": 1697,
      "Ġcount": 1698,
      "'],": 1699,
      "onitor": 1700,
      "order": 1701,
      "Ġbase": 1702,
      "Ġtext": 1703,
      "RM": 1704,
      "Ġsession": 1705,
      "vider": 1706,
      "``": 1707,
      "rame": 1708,
      "keys": 1709,
      "mary": 1710,
      "iteral": 1711,
      "Ġmust": 1712,
      "={\"": 1713,
      "Ġnp": 1714,
      "2021": 1715,
      "UT": 1716,
      "fset": 1717,
      "}\",": 1718,
      "perty": 1719,
      "andle": 1720,
      "tags": 1721,
      "num": 1722,
      "ensor": 1723,
      "ganization": 1724,
      "olver": 1725,
      "07": 1726,
      "Ġcomponent": 1727,
      "tection": 1728,
      "App": 1729,
      "Ġstatus": 1730,
      "created": 1731,
      "Ġ+=": 1732,
      "Ġ200": 1733,
      "Ġcontain": 1734,
      "Iter": 1735,
      "Se": 1736,
      "itional": 1737,
      "pr": 1738,
      "Ġhttp": 1739,
      "Ġfrappe": 1740,
      "utom": 1741,
      "Ġ]": 1742,
      "ark": 1743,
      "Create": 1744,
      "process": 1745,
      "anguage": 1746,
      "Job": 1747,
      "Clo": 1748,
      "quence": 1749,
      "ĠValueError": 1750,
      "management": 1751,
      "]],": 1752,
      "block": 1753,
      "func": 1754,
      "lease": 1755,
      "().": 1756,
      "child": 1757,
      "DE": 1758,
      ").__": 1759,
      "\"{": 1760,
      "ique": 1761,
      "Ġtop": 1762,
      "Link": 1763,
      "page": 1764,
      "local": 1765,
      "top": 1766,
      "system": 1767,
      "Ġlike": 1768,
      "Ġformat": 1769,
      "Management": 1770,
      "eature": 1771,
      "Ġdatabase": 1772,
      "filter": 1773,
      "Status": 1774,
      "licies": 1775,
      "ume": 1776,
      "plit": 1777,
      "float": 1778,
      "ĠType": 1779,
      "itle": 1780,
      "{\"": 1781,
      "ĠSe": 1782,
      "frappe": 1783,
      "Det": 1784,
      "cent": 1785,
      "posit": 1786,
      "mpt": 1787,
      "ange": 1788,
      "ocket": 1789,
      "database": 1790,
      "peri": 1791,
      "An": 1792,
      "direct": 1793,
      "tag": 1794,
      "ĠLo": 1795,
      "Ġmake": 1796,
      "https": 1797,
      "Ġline": 1798,
      "ariable": 1799,
      "lement": 1800,
      "Ġlast": 1801,
      "inary": 1802,
      "cp": 1803,
      "operations": 1804,
      "Ġend": 1805,
      "LE": 1806,
      "uid": 1807,
      "lation": 1808,
      "mission": 1809,
      "ublic": 1810,
      "ĠID": 1811,
      "ctor": 1812,
      "...)": 1813,
      "Account": 1814,
      "Ġbet": 1815,
      "emory": 1816,
      "shot": 1817,
      "shape": 1818,
      "io": 1819,
      "eployment": 1820,
      "PO": 1821,
      "Ar": 1822,
      "ĠPro": 1823,
      "current": 1824,
      "decompress": 1825,
      "Ġconfiguration": 1826,
      "ĠĠĠĠĠĠĠĠĠĠĠĠĠĠĠĠĠĠĠĠĠĠĠĠĠĠĠĠĠĠĠ": 1827,
      "orm": 1828,
      "indow": 1829,
      "year": 1830,
      "RI": 1831,
      "formation": 1832,
      "wo": 1833,
      "yle": 1834,
      "modified": 1835,
      "Ġpytest": 1836,
      "Ġne": 1837,
      ")):": 1838,
      "User": 1839,
      "Def": 1840,
      "ĠARM": 1841,
      "essages": 1842,
      "\"]:": 1843,
      "nap": 1844,
      "ox": 1845,
      "box": 1846,
      "Operations": 1847,
      "Ġenvironment": 1848,
      "Ġ(...)": 1849,
      "ns": 1850,
      "ollingMethod": 1851,
      "ally": 1852,
      "Network": 1853,
      "record": 1854,
      "istent": 1855,
      "Ġresults": 1856,
      "mock": 1857,
      "ĠPollingMethod": 1858,
      "ween": 1859,
      "ĠAsyncPollingMethod": 1860,
      "search": 1861,
      "sk": 1862,
      "cri": 1863,
      "cons": 1864,
      "skip": 1865,
      "thon": 1866,
      "napshot": 1867,
      "Dict": 1868,
      "Ġ202": 1869,
      "=[": 1870,
      "assertTrue": 1871,
      "Ġnumber": 1872,
      "cret": 1873,
      "Ġserver": 1874,
      "Ġexist": 1875,
      "Ġinclude": 1876,
      "igr": 1877,
      "Ġ``": 1878,
      "ression": 1879,
      "Ġorder": 1880,
      "rule": 1881,
      "Ġus": 1882,
      "15": 1883,
      "ĠMachine": 1884,
      "rid": 1885,
      "ft": 1886,
      "ĠĠĠĠĠĠ": 1887,
      "Ġtable": 1888,
      "Ġone": 1889,
      "Ġmatch": 1890,
      "By": 1891,
      "compute": 1892,
      "host": 1893,
      "Ġ!": 1894,
      "Ġpage": 1895,
      "bu": 1896,
      "Ġdeserialization": 1897,
      "label": 1898,
      "doctype": 1899,
      "Ġrecord": 1900,
      "otal": 1901,
      "Token": 1902,
      "Ġbetween": 1903,
      "way": 1904,
      "Ġreg": 1905,
      "Ġindex": 1906,
      "fer": 1907,
      "here": 1908,
      "ListResult": 1909,
      "Ġ!=": 1910,
      "cor": 1911,
      "ght": 1912,
      "utomation": 1913,
      "Ġ).": 1914,
      "Ġoperations": 1915,
      "HolidayName": 1916,
      "send": 1917,
      "namespace": 1918,
      "Ġdelete": 1919,
      "ash": 1920,
      "Ġpoller": 1921,
      "Ġover": 1922,
      "width": 1923,
      "izer": 1924,
      "ield": 1925,
      "ld": 1926,
      "}\"": 1927,
      "Ġ>>": 1928,
      "ses": 1929,
      "50": 1930,
      "Ġho": 1931,
      "Ġread": 1932,
      "Settings": 1933,
      "untime": 1934,
      "ernet": 1935,
      "Ġapplication": 1936,
      "'.": 1937,
      "ared": 1938,
      "ubernet": 1939,
      "ubernetes": 1940,
      "ome": 1941,
      "lro": 1942,
      "TT": 1943,
      "ĠEn": 1944,
      "Ġgener": 1945,
      "pag": 1946,
      "private": 1947,
      "vault": 1948,
      "Ġwork": 1949,
      "results": 1950,
      "holiday": 1951,
      "cloud": 1952,
      "22": 1953,
      "ding": 1954,
      "gent": 1955,
      "LO": 1956,
      "names": 1957,
      "::": 1958,
      "fl": 1959,
      "Ġ201": 1960,
      "ou": 1961,
      "igned": 1962,
      "aset": 1963,
      "pass": 1964,
      "SE": 1965,
      "ze": 1966,
      "Col": 1967,
      "Ġcomp": 1968,
      "ĠIs": 1969,
      "schema": 1970,
      "curity": 1971,
      "})": 1972,
      "Ġcolumn": 1973,
      "irtual": 1974,
      "pend": 1975,
      "step": 1976,
      "ias": 1977,
      "Ġj": 1978,
      "number": 1979,
      "analy": 1980,
      "AM": 1981,
      "Ġsett": 1982,
      "ĠKnown": 1983,
      "Input": 1984,
      "split": 1985,
      "Ġtr": 1986,
      "ĠCont": 1987,
      "condition": 1988,
      "Ġbinary": 1989,
      "Ġidentifier": 1990,
      "ces": 1991,
      "Ġcompute": 1992,
      "Ġentity": 1993,
      "sample": 1994,
      "Ġhave": 1995,
      "Ġoptions": 1996,
      "Ġiterator": 1997,
      "ĠLearning": 1998,
      "loc": 1999,
      "Ġ>>>": 2000,
      "Ġwait": 2001,
      "values": 2002,
      "urns": 2003,
      "raining": 2004,
      "AsyncLROPoller": 2005,
      "bug": 2006,
      "Definition": 2007,
      "ole": 2008,
      "cale": 2009,
      "aa": 2010,
      "Ġow": 2011,
      "section": 2012,
      "'))": 2013,
      "tifact": 2014,
      "tra": 2015,
      "Contract": 2016,
      "edi": 2017,
      "Ġnetwork": 2018,
      "Ġtwo": 2019,
      "oice": 2020,
      "Parameters": 2021,
      "ĠGet": 2022,
      "16": 2023,
      "agin": 2024,
      "Ġother": 2025,
      "ins": 2026,
      "ous": 2027,
      "ailed": 2028,
      "Deployment": 2029,
      "ĠService": 2030,
      "tegr": 2031,
      "Ġ{}))": 2032,
      "Ġpresent": 2033,
      "close": 2034,
      "Ġlength": 2035,
      "oth": 2036,
      "Ġprovi": 2037,
      "alm": 2038,
      "Ġact": 2039,
      "Ass": 2040,
      "consistent": 2041,
      "np": 2042,
      "Ġallow": 2043,
      "conds": 2044,
      "workspaceName": 2045,
      "Ġopen": 2046,
      "alth": 2047,
      "Ġ..": 2048,
      "ingle": 2049,
      "msg": 2050,
      "Ġany": 2051,
      "Ġfloat": 2052,
      "ĠĠĠĠĠĠĠĠĠĠ": 2053,
      "Ġaction": 2054,
      "arent": 2055,
      "Ġpl": 2056,
      "patch": 2057,
      "Ġcache": 2058,
      "statements": 2059,
      "olume": 2060,
      "Ġexp": 2061,
      "fields": 2062,
      "ĠLiteral": 2063,
      "paging": 2064,
      "Ġstrategy": 2065,
      "og": 2066,
      "attributes": 2067,
      "gging": 2068,
      "imum": 2069,
      "Met": 2070,
      "dic": 2071,
      "Query": 2072,
      "raph": 2073,
      "function": 2074,
      "vm": 2075,
      "Services": 2076,
      "its": 2077,
      "Class": 2078,
      "CO": 2079,
      "Ġaccess": 2080,
      "33": 2081,
      "children": 2082,
      ".\")": 2083,
      "allery": 2084,
      "uccess": 2085,
      "scale": 2086,
      "download": 2087,
      "Access": 2088,
      "torch": 2089,
      "State": 2090,
      "JSON": 2091,
      "Sche": 2092,
      "inconsistent": 2093,
      "oci": 2094,
      "Rule": 2095,
      "ix": 2096,
      "Ġad": 2097,
      "De": 2098,
      "Dat": 2099,
      "Ġload": 2100,
      "device": 2101,
      "\"])": 2102,
      "side": 2103,
      "ca": 2104,
      "ĠAsyncARM": 2105,
      "random": 2106,
      "]{": 2107,
      "Instance": 2108,
      "Ġclose": 2109,
      "Time": 2110,
      "alid": 2111,
      "ical": 2112,
      "Stream": 2113,
      "copy": 2114,
      "mos": 2115,
      "Ġinitializ": 2116,
      "TE": 2117,
      "\"^[": 2118,
      "Ġchar": 2119,
      "ersonal": 2120,
      "ures": 2121,
      "bus": 2122,
      "ount": 2123,
      "dictions": 2124,
      "ors": 2125,
      "ived": 2126,
      "right": 2127,
      "older": 2128,
      "Ġbut": 2129,
      "quant": 2130,
      "Ġ.": 2131,
      "Cre": 2132,
      "Ġcontext": 2133,
      "andler": 2134,
      "RR": 2135,
      "ENT": 2136,
      "Un": 2137,
      "aved": 2138,
      "ans": 2139,
      "rop": 2140,
      "Ġcal": 2141,
      "Ġmemory": 2142,
      "me": 2143,
      "99": 2144,
      "AG": 2145,
      "On": 2146,
      "Ġsize": 2147,
      "connect": 2148,
      "Ġthen": 2149,
      "Ġ\\": 2150,
      "limit": 2151,
      "parameter": 2152,
      "Ġexec": 2153,
      "Ġback": 2154,
      "AC": 2155,
      "ert": 2156,
      "over": 2157,
      "open": 2158,
      "df": 2159,
      "package": 2160,
      "'t": 2161,
      "via": 2162,
      "==": 2163,
      "Ġrule": 2164,
      "entities": 2165,
      "cogn": 2166,
      "types": 2167,
      "ĠAs": 2168,
      "tegration": 2169,
      "script": 2170,
      "Private": 2171,
      "File": 2172,
      "Storage": 2173,
      "Ġlabel": 2174,
      "Ġschema": 2175,
      "sql": 2176,
      "ids": 2177,
      "Workspace": 2178,
      "tensor": 2179,
      "ĠCom": 2180,
      "AsyncPollingMethod": 2181,
      "Ġwithin": 2182,
      "reference": 2183,
      "tics": 2184,
      "Ġsend": 2185,
      "Po": 2186,
      "import": 2187,
      "ĠĠĠĠĠĠĠĠĠ": 2188,
      "Ġ6": 2189,
      "olution": 2190,
      "pec": 2191,
      "Dele": 2192,
      "vers": 2193,
      "Ġsocket": 2194,
      "Ġorig": 2195,
      "Ġunique": 2196,
      "Ġazure": 2197,
      "Ġparent": 2198,
      "asic": 2199,
      "Ġbatch": 2200,
      "34": 2201,
      "document": 2202,
      "\"):": 2203,
      "Ġlab": 2204,
      "ĠARMPolling": 2205,
      "qs": 2206,
      "ating": 2207,
      "ĠBy": 2208,
      "deployment": 2209,
      "edError": 2210,
      "Retry": 2211,
      "identity": 2212,
      "ES": 2213,
      "sess": 2214,
      "iss": 2215,
      "Cluster": 2216,
      "ĠAsyncARMPolling": 2217,
      "fy": 2218,
      "ined": 2219,
      "cle": 2220,
      "Ġfirst": 2221,
      "Ġavail": 2222,
      "igration": 2223,
      "Sec": 2224,
      "Ġdevice": 2225,
      "details": 2226,
      "role": 2227,
      "Ġnum": 2228,
      "Ġrow": 2229,
      "Ġown": 2230,
      "inputs": 2231,
      "Ġnamespace": 2232,
      "AP": 2233,
      "Ġpri": 2234,
      "Di": 2235,
      "Ġ10": 2236,
      "Run": 2237,
      "lename": 2238,
      "Iterator": 2239,
      "provider": 2240,
      "annot": 2241,
      "Ġmetadata": 2242,
      "ux": 2243,
      "Ġwas": 2244,
      "periment": 2245,
      "dtype": 2246,
      "ify": 2247,
      "imest": 2248,
      "ugh": 2249,
      "illing": 2250,
      "validate": 2251,
      "Ġexisting": 2252,
      "ĠLoad": 2253,
      "artifact": 2254,
      "visioning": 2255,
      "none": 2256,
      "ĠCreate": 2257,
      "rigger": 2258,
      "cpu": 2259,
      "seq": 2260,
      "etch": 2261,
      "ized": 2262,
      "Image": 2263,
      "profile": 2264,
      "</": 2265,
      "ĠFor": 2266,
      "control": 2267,
      "directory": 2268,
      "ctionary": 2269,
      "Ġpartition": 2270,
      "Ġrequired": 2271,
      "Ġdocument": 2272,
      "div": 2273,
      "lines": 2274,
      "title": 2275,
      "Ġsaved": 2276,
      "lish": 2277,
      "Ġdoes": 2278,
      "aml": 2279,
      "hub": 2280,
      "sup": 2281,
      "ManagementClient": 2282,
      "bs": 2283,
      "Ġpool": 2284,
      "Server": 2285,
      "outputs": 2286,
      "Trans": 2287,
      "ĠStream": 2288,
      "Ġdate": 2289,
      "ds": 2290,
      "GG": 2291,
      "agent": 2292,
      "Consum": 2293,
      "18": 2294,
      "ulti": 2295,
      "fid": 2296,
      "dum": 2297,
      "PE": 2298,
      "Ġusing": 2299,
      "Arm": 2300,
      "aint": 2301,
      "machine": 2302,
      "atible": 2303,
      "wh": 2304,
      "build": 2305,
      "metric": 2306,
      "ward": 2307,
      "dk": 2308,
      "24": 2309,
      "sy": 2310,
      "ĠLRO": 2311,
      "plication": 2312,
      "Doc": 2313,
      "imestamp": 2314,
      "usters": 2315,
      "hook": 2316,
      "Ġ\"\"": 2317,
      "}$": 2318,
      "reshold": 2319,
      "((": 2320,
      "face": 2321,
      "Ġ...": 2322,
      "ions": 2323,
      "Ġrece": 2324,
      "Info": 2325,
      "Ġrestart": 2326,
      "Ġargs": 2327,
      "Ġdtype": 2328,
      "acity": 2329,
      "andard": 2330,
      "environment": 2331,
      "dition": 2332,
      "orig": 2333,
      "height": 2334,
      "ETag": 2335,
      ".\"": 2336,
      "Identity": 2337,
      "Pool": 2338,
      "Dis": 2339,
      "avail": 2340,
      "ĠRetry": 2341,
      "Ġdetails": 2342,
      "Ġpoll": 2343,
      "ĠPass": 2344,
      "Ġinitialized": 2345,
      "els": 2346,
      "AN": 2347,
      "ative": 2348,
      "lab": 2349,
      "](": 2350,
      "offset": 2351,
      "ĠIter": 2352,
      "example": 2353,
      "command": 2354,
      "ĠNot": 2355,
      "enabled": 2356,
      "ful": 2357,
      "aginated": 2358,
      "Sh": 2359,
      "bound": 2360,
      "Ġwaiting": 2361,
      "àº": 2362,
      "Ġadditional": 2363,
      "final": 2364,
      "Ġ00": 2365,
      "debug": 2366,
      "ĠManagement": 2367,
      "secret": 2368,
      "ick": 2369,
      "language": 2370,
      "ateway": 2371,
      "Ġpersonal": 2372,
      "Ent": 2373,
      "fidence": 2374,
      "Virtual": 2375,
      "Ġtag": 2376,
      "AS": 2377,
      "urllib": 2378,
      "setting": 2379,
      "replace": 2380,
      "ĠNo": 2381,
      "grad": 2382,
      "urlparse": 2383,
      "Paginated": 2384,
      "ĠReturns": 2385,
      "Ġsearch": 2386,
      "Details": 2387,
      "share": 2388,
      "manager": 2389,
      "Tensor": 2390,
      "ern": 2391,
      "urljoin": 2392,
      "Ġprovided": 2393,
      "ics": 2394,
      "Ġcommand": 2395,
      "recovery": 2396,
      "ring": 2397,
      "mon": 2398,
      "wise": 2399,
      "lta": 2400,
      "IOBase": 2401,
      "[:": 2402,
      "Ġsy": 2403,
      "exp": 2404,
      "Ġhttps": 2405,
      "lp": 2406,
      "ĠKey": 2407,
      "Closed": 2408,
      "Ġvirtual": 2409,
      "style": 2410,
      "Ġdatetime": 2411,
      "Event": 2412,
      "rie": 2413,
      "sessment": 2414,
      "emb": 2415,
      "ĉĉĉĉ": 2416,
      "Action": 2417,
      "Ġidentity": 2418,
      "Ġcertificate": 2419,
      "apacity": 2420,
      "plan": 2421,
      "Ġfl": 2422,
      "ML": 2423,
      "Environment": 2424,
      "Ġshare": 2425,
      "Ġlogger": 2426,
      "ĠSet": 2427,
      "assertHolidayName": 2428,
      "workflow": 2429,
      "served": 2430,
      "gress": 2431,
      "retry": 2432,
      "ince": 2433,
      "Ġpolls": 2434,
      "Ch": 2435,
      "swith": 2436,
      "CH": 2437,
      "Ġmode": 2438,
      "Code": 2439,
      "ublish": 2440,
      "Ġblock": 2441,
      "Ġ],": 2442,
      "engine": 2443,
      "anager": 2444,
      "Ġorganization": 2445,
      "weight": 2446,
      "rough": 2447,
      "000": 2448,
      "gra": 2449,
      "post": 2450,
      "CON": 2451,
      "ĠY": 2452,
      "environ": 2453,
      "mod": 2454,
      "Ġmodule": 2455,
      "Ġinformation": 2456,
      "ĠItem": 2457,
      "POST": 2458,
      "Ġassoci": 2459,
      "IT": 2460,
      "Custom": 2461,
      "ession": 2462,
      "Ġelement": 2463,
      "14": 2464,
      "Component": 2465,
      "level": 2466,
      "XX": 2467,
      "ĠAsyncList": 2468,
      "ency": 2469,
      "ClosedError": 2470,
      "ConsumedError": 2471,
      "Ġcharact": 2472,
      "now": 2473,
      "StreamConsumedError": 2474,
      "opy": 2475,
      "book": 2476,
      "Message": 2477,
      "pan": 2478,
      "ored": 2479,
      "ĠStreamClosedError": 2480,
      "coding": 2481,
      "The": 2482,
      "AD": 2483,
      "equal": 2484,
      "Ġselect": 2485,
      "partition": 2486,
      "PaginatedResult": 2487,
      "email": 2488,
      "Ġfound": 2489,
      "Ġmachine": 2490,
      "foo": 2491,
      "Ġsettings": 2492,
      "ArmPaginatedResult": 2493,
      "ffer": 2494,
      "files": 2495,
      "ĠContainer": 2496,
      "ges": 2497,
      "so": 2498,
      "alleng": 2499,
      "under": 2500,
      "ĠData": 2501,
      "arn": 2502,
      "unk": 2503,
      "Ġdisplay": 2504,
      "ĠException": 2505,
      "cript": 2506,
      "teg": 2507,
      "ĠWor": 2508,
      "Ġ8": 2509,
      "tenant": 2510,
      "Ġdefinition": 2511,
      "find": 2512,
      "Ð½": 2513,
      "Check": 2514,
      "element": 2515,
      "OR": 2516,
      "rece": 2517,
      "Ġprovider": 2518,
      "ResourceArmPaginatedResult": 2519,
      "qp": 2520,
      "Ġtuple": 2521,
      "ĠDe": 2522,
      "EndpointConnection": 2523,
      "realm": 2524,
      "Ġcompatible": 2525,
      "ister": 2526,
      "eb": 2527,
      "Ġdb": 2528,
      "As": 2529,
      "Learning": 2530,
      "Ġ<=": 2531,
      "tension": 2532,
      "argument": 2533,
      "\").": 2534,
      "address": 2535,
      "Pl": 2536,
      "ultip": 2537,
      "Ġextension": 2538,
      "At": 2539,
      "KE": 2540,
      "zone": 2541,
      "ches": 2542,
      "lied": 2543,
      "only": 2544,
      "syn": 2545,
      "resolver": 2546,
      "medi": 2547,
      "udi": 2548,
      "dim": 2549,
      "PT": 2550,
      "ulate": 2551,
      "ĠTest": 2552,
      "SU": 2553,
      "comple": 2554,
      "Ġavailable": 2555,
      "product": 2556,
      "''": 2557,
      "Valid": 2558,
      "Ġauto": 2559,
      "transport": 2560,
      "Ġvault": 2561,
      "utput": 2562,
      "ĠOperation": 2563,
      "lobal": 2564,
      "AI": 2565,
      "rit": 2566,
      "mp": 2567,
      "Exception": 2568,
      "Ġmore": 2569,
      "Ġsee": 2570,
      "cip": 2571,
      "ason": 2572,
      "grade": 2573,
      "reak": 2574,
      "leted": 2575,
      "ĠUser": 2576,
      "ron": 2577,
      "QL": 2578,
      "(*": 2579,
      "ply": 2580,
      "istory": 2581,
      "tx": 2582,
      "eval": 2583,
      "vide": 2584,
      "Mock": 2585,
      "ved": 2586,
      "managed": 2587,
      "Ġobj": 2588,
      "Ġprocess": 2589,
      "px": 2590,
      "auto": 2591,
      "Ġsk": 2592,
      "arm": 2593,
      "ĠId": 2594,
      "most": 2595,
      "ture": 2596,
      ")]": 2597,
      "28": 2598,
      "Ġyear": 2599,
      "Ġsample": 2600,
      "ride": 2601,
      "organization": 2602,
      "enter": 2603,
      "workspaces": 2604,
      "Ġmanaged": 2605,
      "26": 2606,
      "Ġrole": 2607,
      "pay": 2608,
      "Ġ>=": 2609,
      "Batch": 2610,
      "resources": 2611,
      "ariables": 2612,
      "Ġconnect": 2613,
      "mark": 2614,
      "color": 2615,
      "Ġcor": 2616,
      "ĠĠĠĠĠĠĠĠĠĠĠĠĠĠĠĠĠĠĠĠĠ": 2617,
      "yb": 2618,
      "Ġproduct": 2619,
      "Ġvm": 2620,
      "17": 2621,
      "Ġcustomer": 2622,
      "err": 2623,
      "messages": 2624,
      "upload": 2625,
      "hether": 2626,
      "window": 2627,
      "ĠParameters": 2628,
      "Session": 2629,
      "apse": 2630,
      "strib": 2631,
      "delta": 2632,
      "plic": 2633,
      "Ġtask": 2634,
      "zer": 2635,
      "ING": 2636,
      "MachineLearning": 2637,
      "Ġproperty": 2638,
      "ĠAsyncItemPaged": 2639,
      "ping": 2640,
      "Ġqueue": 2641,
      "fore": 2642,
      "vit": 2643,
      "policies": 2644,
      "Ġdirectory": 2645,
      "Ġitems": 2646,
      "mask": 2647,
      "var": 2648,
      "Ġop": 2649,
      "mpty": 2650,
      "lters": 2651,
      "Ġupdated": 2652,
      "sign": 2653,
      "holidays": 2654,
      "contain": 2655,
      "attribute": 2656,
      "56": 2657,
      "river": 2658,
      "UN": 2659,
      "task": 2660,
      "Ġms": 2661,
      "mail": 2662,
      "Ġwidth": 2663,
      "ĠĠĠĠĠĠĠĠĠĠĠĠĠĠĠĠĠĠĠĠĠĠĠĠĠĠĠĠĠĠĠĠĠĠĠ": 2664,
      "Ġrequests": 2665,
      ">`": 2666,
      "Ġcollection": 2667,
      "Ġschedule": 2668,
      "allenge": 2669,
      "security": 2670,
      "ĠItemPaged": 2671,
      "Ġwhile": 2672,
      "Ġassociated": 2673,
      "other": 2674,
      "username": 2675,
      "rad": 2676,
      "ĠSpeci": 2677,
      "Ġap": 2678,
      "Return": 2679,
      "ormal": 2680,
      "execution": 2681,
      "Att": 2682,
      "Database": 2683,
      "Ġport": 2684,
      "Ġeval": 2685,
      "kind": 2686,
      "setup": 2687,
      "util": 2688,
      "Ob": 2689,
      "meta": 2690,
      "pack": 2691,
      "pk": 2692,
      "Sql": 2693,
      "Value": 2694,
      "Ġasset": 2695,
      "TTP": 2696,
      "Ġprofile": 2697,
      "tokens": 2698,
      "ified": 2699,
      "ybrid": 2700,
      "Ġlease": 2701,
      "atures": 2702,
      "Managed": 2703,
      "gor": 2704,
      "xml": 2705,
      "13": 2706,
      "dn": 2707,
      "Ġhandle": 2708,
      "handle": 2709,
      "web": 2710,
      "ĠX": 2711,
      "vector": 2712,
      "Ġhost": 2713,
      "ĠPo": 2714,
      "29": 2715,
      "gorith": 2716,
      "FI": 2717,
      "\"].": 2718,
      "Ġsupported": 2719,
      "mote": 2720,
      "gistration": 2721,
      "encryption": 2722,
      "inue": 2723,
      "omain": 2724,
      "frame": 2725,
      "MachineLearningServices": 2726,
      "osmos": 2727,
      "public": 2728,
      "Ġoffset": 2729,
      "extension": 2730,
      "asks": 2731,
      "ignments": 2732,
      "amqp": 2733,
      "Ġreturned": 2734,
      "rc": 2735,
      "Ġchild": 2736,
      "Ġagent": 2737,
      "credentials": 2738,
      "Creates": 2739,
      ")))": 2740,
      "urity": 2741,
      "Ġexample": 2742,
      "Ra": 2743,
      "first": 2744,
      "Ġsql": 2745,
      "ven": 2746,
      "Ġso": 2747,
      "entry": 2748,
      "ready": 2749,
      "wer": 2750,
      "agno": 2751,
      "Ġunder": 2752,
      "ĠAc": 2753,
      "password": 2754,
      "edge": 2755,
      "Ġdictionary": 2756,
      "ATE": 2757,
      "Ġtra": 2758,
      "ssible": 2759,
      "iew": 2760,
      "Ġsu": 2761,
      "Ġbu": 2762,
      "Ġsequence": 2763,
      "Config": 2764,
      "Ġ('": 2765,
      "Ġ@": 2766,
      "Ġbox": 2767,
      "ĠApp": 2768,
      "']=": 2769,
      "END": 2770,
      "Ġpay": 2771,
      "duration": 2772,
      "position": 2773,
      "ultiple": 2774,
      "crypt": 2775,
      "KEY": 2776,
      "part": 2777,
      "Provider": 2778,
      "imple": 2779,
      "000000000000": 2780,
      "md": 2781,
      "Ġinter": 2782,
      "ublisher": 2783,
      "Ġexpi": 2784,
      "Ġyou": 2785,
      "rp": 2786,
      "atform": 2787,
      "ĠArg": 2788,
      "Ġeach": 2789,
      "Compute": 2790,
      "ĠĠĠĠĠĠĠĠĠĠĠĠ": 2791,
      "mbol": 2792,
      "ular": 2793,
      "otp": 2794,
      "lower": 2795,
      "Api": 2796,
      "fies": 2797,
      "certificate": 2798,
      "IM": 2799,
      "ital": 2800,
      "rganization": 2801,
      "Text": 2802,
      "Ġpolicies": 2803,
      "sis": 2804,
      "amic": 2805,
      "collection": 2806,
      "center": 2807,
      "ĠTo": 2808,
      "tool": 2809,
      "ifest": 2810,
      "Blob": 2811,
      "etag": 2812,
      "backup": 2813,
      "Pre": 2814,
      "Ġnon": 2815,
      "assertNo": 2816,
      "Ġfields": 2817,
      "fail": 2818,
      "Ġlimit": 2819,
      "Gets": 2820,
      "Feature": 2821,
      "Profile": 2822,
      "Application": 2823,
      "Ġnames": 2824,
      "Ġoptional": 2825,
      "Ġmetric": 2826,
      "ĠAct": 2827,
      "active": 2828,
      "total": 2829,
      "Source": 2830,
      "Ġwhere": 2831,
      "Ġneed": 2832,
      "Analy": 2833,
      "gu": 2834,
      "logger": 2835,
      "dt": 2836,
      "Ġattributes": 2837,
      "Ġinference": 2838,
      "servation": 2839,
      "Or": 2840,
      "Ġreference": 2841,
      "Document": 2842,
      "Ġautomation": 2843,
      "[-": 2844,
      "asses": 2845,
      "30": 2846,
      "domain": 2847,
      "Ġinst": 2848,
      "Ġthan": 2849,
      "full": 2850,
      "strip": 2851,
      "Ġfeature": 2852,
      "ilt": 2853,
      "\"][\"": 2854,
      "Ġtool": 2855,
      "Ġkeys": 2856,
      "empt": 2857,
      "ries": 2858,
      "ploy": 2859,
      "incip": 2860,
      "Ġresources": 2861,
      "schedule": 2862,
      "expi": 2863,
      "'^[": 2864,
      "Part": 2865,
      "ĠOn": 2866,
      "columns": 2867,
      "uuid": 2868,
      "ĠNoPolling": 2869,
      "mar": 2870,
      "print": 2871,
      "ĠUp": 2872,
      "Ġstat": 2873,
      "Table": 2874,
      "expected": 2875,
      "dev": 2876,
      "NoPolling": 2877,
      "Ð°": 2878,
      "ĠAsyncNoPolling": 2879,
      "allow": 2880,
      "round": 2881,
      "the": 2882,
      "generate": 2883,
      "55": 2884,
      "incipal": 2885,
      "Ġ{'": 2886,
      "ĠĠĠĠĠĠĠĠĊ": 2887,
      "mm": 2888,
      "idx": 2889,
      "Ġlocal": 2890,
      "Ġ204": 2891,
      "4444": 2892,
      "prefix": 2893,
      "execute": 2894,
      "ped": 2895,
      "ĠMode": 2896,
      "teger": 2897,
      "SC": 2898,
      "Th": 2899,
      "udio": 2900,
      "less": 2901,
      "video": 2902,
      "imes": 2903,
      "ware": 2904,
      "permission": 2905,
      "encode": 2906,
      "Ġmessages": 2907,
      "span": 2908,
      "dates": 2909,
      "Ġscale": 2910,
      "ĠCheck": 2911,
      "Ġgetattr": 2912,
      "scopes": 2913,
      "23": 2914,
      "acy": 2915,
      "à¹": 2916,
      "ĠEndpoint": 2917,
      "Parameter": 2918,
      "customer": 2919,
      "train": 2920,
      "DEL": 2921,
      "trace": 2922,
      "den": 2923,
      "go": 2924,
      "arge": 2925,
      "AsyncOperation": 2926,
      "Avail": 2927,
      "Ġsame": 2928,
      "category": 2929,
      "DB": 2930,
      "down": 2931,
      "quota": 2932,
      "pic": 2933,
      "}$'),": 2934,
      "Ðµ": 2935,
      "ww": 2936,
      "}'": 2937,
      "ĠSeq": 2938,
      "pository": 2939,
      "DO": 2940,
      "Ġsave": 2941,
      "Schedule": 2942,
      "comm": 2943,
      "validation": 2944,
      "after": 2945,
      "Cloud": 2946,
      "Ġafter": 2947,
      "uti": 2948,
      "vis": 2949,
      "tail": 2950,
      "ater": 2951,
      "lastModified": 2952,
      "ead": 2953,
      "##": 2954,
      "bar": 2955,
      "du": 2956,
      "inference": 2957,
      "Ġworkflow": 2958,
      "Ġtensor": 2959,
      "CC": 2960,
      "hash": 2961,
      "qualified": 2962,
      "27": 2963,
      "chron": 2964,
      "Add": 2965,
      "stop": 2966,
      "}-": 2967,
      "ched": 2968,
      "present": 2969,
      "site": 2970,
      "recogn": 2971,
      "roughput": 2972,
      "Subscription": 2973,
      "Ġmsg": 2974,
      "main": 2975,
      "cluded": 2976,
      "Ġmonitor": 2977,
      "thread": 2978,
      "IC": 2979,
      "Ġframe": 2980,
      "Ġsort": 2981,
      "some": 2982,
      "Ġrest": 2983,
      "Quot": 2984,
      ",),": 2985,
      "ination": 2986,
      "Basic": 2987,
      "TO": 2988,
      "ĠDB": 2989,
      "ongo": 2990,
      "Ġupdates": 2991,
      "gorithm": 2992,
      "Ġver": 2993,
      "PUT": 2994,
      "Vault": 2995,
      "assignment": 2996,
      "Keys": 2997,
      "root": 2998,
      "Tr": 2999,
      "uni": 3000,
      "handler": 3001,
      "sequence": 3002,
      "exists": 3003,
      "ategor": 3004,
      "Control": 3005,
      "tections": 3006,
      "ises": 3007,
      "Ġenable": 3008,
      "ETE": 3009,
      "Ġsupport": 3010,
      "Entity": 3011,
      "versions": 3012,
      "ĠAssert": 3013,
      "iver": 3014,
      "nx": 3015,
      "ority": 3016,
      "Ð¾": 3017,
      "ĠExample": 3018,
      "AB": 3019,
      "score": 3020,
      "rapper": 3021,
      "Ġthread": 3022,
      "Ġvalidate": 3023,
      "used": 3024,
      "rs": 3025,
      "ker": 3026,
      "save": 3027,
      "Ġpart": 3028,
      "coder": 3029,
      "connections": 3030,
      "ha": 3031,
      "insert": 3032,
      "include": 3033,
      "UL": 3034,
      "alake": 3035,
      "jobs": 3036,
      "Index": 3037,
      "Field": 3038,
      "gment": 3039,
      "igh": 3040,
      "URE": 3041,
      "microsoft": 3042,
      "Ġcloud": 3043,
      "acked": 3044,
      "Ġfabric": 3045,
      "rency": 3046,
      "sm": 3047,
      "Ġinto": 3048,
      "authorization": 3049,
      "quire": 3050,
      "threshold": 3051,
      "enable": 3052,
      "ention": 3053,
      "Ġcopy": 3054,
      "Ġsign": 3055,
      "utc": 3056,
      "Ġref": 3057,
      "][\"": 3058,
      "sition": 3059,
      "Ġencryption": 3060,
      "ollow": 3061,
      "31": 3062,
      "pression": 3063,
      "ĠBlob": 3064,
      "char": 3065,
      "mer": 3066,
      "acken": 3067,
      "Ġcredentials": 3068,
      "cla": 3069,
      "mous": 3070,
      "Ġvolume": 3071,
      "pos": 3072,
      "Exec": 3073,
      "ĠETag": 3074,
      "aster": 3075,
      "Ġpredictions": 3076,
      "training": 3077,
      "provisioning": 3078,
      "remove": 3079,
      "roll": 3080,
      "Ġenabled": 3081,
      "empty": 3082,
      "Ġcharacters": 3083,
      "Registry": 3084,
      "Ġcontinue": 3085,
      "enef": 3086,
      "ended": 3087,
      "Ġlay": 3088,
      "versation": 3089,
      "ek": 3090,
      "AsyncItemPaged": 3091,
      "ĠĠĠĠĠĠĠĠĠĠĠĠĠĠĠĠĠĠĠĠĠĠĠĠĠ": 3092,
      "success": 3093,
      "View": 3094,
      "Ġpackage": 3095,
      "ptim": 3096,
      "bot": 3097,
      "Ġ100": 3098,
      "ĠUn": 3099,
      "Co": 3100,
      "Ġtotal": 3101,
      "inv": 3102,
      "guard": 3103,
      "rag": 3104,
      "property": 3105,
      "Ġsnapshot": 3106,
      "({\"": 3107,
      "utils": 3108,
      "Al": 3109,
      "Ġme": 3110,
      "ĠIm": 3111,
      "ights": 3112,
      "96": 3113,
      "Pipeline": 3114,
      "pect": 3115,
      "Ġsecond": 3116,
      "Hub": 3117,
      "Ġstep": 3118,
      "groups": 3119,
      "change": 3120,
      "Node": 3121,
      "ipe": 3122,
      "Ġfunc": 3123,
      "alle": 3124,
      "display": 3125,
      "VirtualMachine": 3126,
      "ternal": 3127,
      "Ġcontains": 3128,
      "Ġchang": 3129,
      "Delete": 3130,
      "numpy": 3131,
      "Ġdisk": 3132,
      "Ġ7": 3133,
      "lot": 3134,
      "scalar": 3135,
      "Ġfe": 3136,
      "Ġseconds": 3137,
      "Path": 3138,
      "filename": 3139,
      "confidence": 3140,
      "Ġbefore": 3141,
      "almost": 3142,
      "Ġ16": 3143,
      "when": 3144,
      "Ġattr": 3145,
      "DI": 3146,
      "eded": 3147,
      "Ġtypes": 3148,
      "Authorization": 3149,
      "heet": 3150,
      "yy": 3151,
      "ĠÐ": 3152,
      "Ġsupp": 3153,
      "startswith": 3154,
      "Ġrecovery": 3155,
      "Ġcategory": 3156,
      "Ġinputs": 3157,
      "rate": 3158,
      "Extension": 3159,
      "depend": 3160,
      "ĠModel": 3161,
      "Ġab": 3162,
      "Ġvalidation": 3163,
      "100": 3164,
      "({": 3165,
      "cription": 3166,
      "can": 3167,
      "snapshot": 3168,
      "Ġele": 3169,
      "fp": 3170,
      "Ġsingle": 3171,
      "ending": 3172,
      "NAM": 3173,
      "plement": 3174,
      "Ġparse": 3175,
      "Ġpoint": 3176,
      "Setting": 3177,
      "az": 3178,
      "hel": 3179,
      "Ġnn": 3180,
      "ĠJob": 3181,
      "umer": 3182,
      "ĠStorage": 3183,
      "Ġallowed": 3184,
      "stack": 3185,
      "Ġretry": 3186,
      "Element": 3187,
      "Ġ[{\"": 3188,
      "synapse": 3189,
      "cc": 3190,
      "ancel": 3191,
      "admin": 3192,
      "Ġmay": 3193,
      "API": 3194,
      "sdk": 3195,
      "Ġmanagement": 3196,
      "Ġauthentication": 3197,
      "Date": 3198,
      "Ġresp": 3199,
      "agnost": 3200,
      "park": 3201,
      "folder": 3202,
      "Ġfiles": 3203,
      "links": 3204,
      "MM": 3205,
      "Ġarray": 3206,
      "ackend": 3207,
      "region": 3208,
      "analytics": 3209,
      "Ġshape": 3210,
      "Ġ2050": 3211,
      "BBBB": 3212,
      "ĠArgs": 3213,
      "Ġdest": 3214,
      "late": 3215,
      "ection": 3216,
      "warning": 3217,
      "Db": 3218,
      "ann": 3219,
      "ship": 3220,
      "Sub": 3221,
      "ense": 3222,
      "health": 3223,
      "Ġgallery": 3224,
      "ivity": 3225,
      "ĠIterable": 3226,
      "Sk": 3227,
      "ĠĠĠĠĠĠĠĠĠĠĠĠĠĠĠĠĠĠĠĠĠĠĠĠĠĠĠĠĠĠĠĠĠĠĠĠĠĠĠĠĠĠ": 3228,
      "PrivateEndpointConnection": 3229,
      "Ġlogging": 3230,
      "Ġannot": 3231,
      "Ġexc": 3232,
      "Ġatt": 3233,
      "Ġ['": 3234,
      "Ġhelp": 3235,
      "containers": 3236,
      "diction": 3237,
      "'):": 3238,
      "Ġinfo": 3239,
      "Tem": 3240,
      "Ġempty": 3241,
      "VER": 3242,
      "Ġremove": 3243,
      "env": 3244,
      "ynamic": 3245,
      "Ġsecurity": 3246,
      "ordin": 3247,
      "feature": 3248,
      "PTION": 3249,
      "Raises": 3250,
      "sOperations": 3251,
      "Ġsystem": 3252,
      "disk": 3253,
      "Availability": 3254,
      "Ġmove": 3255,
      "imat": 3256,
      "Ġintegration": 3257,
      "Ġalready": 3258,
      "Ġfind": 3259,
      "ffic": 3260,
      "perator": 3261,
      "cat": 3262,
      "Ġtemp": 3263,
      "Block": 3264,
      "assertRaises": 3265,
      "seconds": 3266,
      "amount": 3267,
      "udit": 3268,
      ".,": 3269,
      "ton": 3270,
      "documents": 3271,
      "Ġits": 3272,
      "any": 3273,
      "ie": 3274,
      "non": 3275,
      "straint": 3276,
      "Output": 3277,
      "observed": 3278,
      "Des": 3279,
      "utf": 3280,
      "predictions": 3281,
      "efore": 3282,
      "Ġmaximum": 3283,
      "fabric": 3284,
      "defined": 3285,
      "ynchron": 3286,
      "Collection": 3287,
      "af": 3288,
      "----------------": 3289,
      "FF": 3290,
      "spec": 3291,
      "Ġcomple": 3292,
      "Assignment": 3293,
      "áŀ": 3294,
      "Gener": 3295,
      "'])": 3296,
      "tw": 3297,
      "Ġparam": 3298,
      "Ġcondition": 3299,
      "timestamp": 3300,
      "Ġbreak": 3301,
      "Ġauthorization": 3302,
      "Ġbackup": 3303,
      "Back": 3304,
      "org": 3305,
      "ART": 3306,
      "actions": 3307,
      "Ø§": 3308,
      "Ġpermission": 3309,
      "Ġoriginal": 3310,
      "enant": 3311,
      "2019": 3312,
      "graph": 3313,
      "Ġ\".": 3314,
      "riter": 3315,
      "hed": 3316,
      "Ġ'{": 3317,
      "ier": 3318,
      "Ġpatch": 3319,
      "ĠMust": 3320,
      "Ġfin": 3321,
      "choice": 3322,
      "Ġexception": 3323,
      "Work": 3324,
      "ily": 3325,
      "decode": 3326,
      "python": 3327,
      "ness": 3328,
      "aded": 3329,
      "Ġmat": 3330,
      "ĠCustom": 3331,
      "Ġwrite": 3332,
      "2018": 3333,
      "ZURE": 3334,
      "Ġdf": 3335,
      "stribution": 3336,
      "Ġseq": 3337,
      "fixture": 3338,
      "Online": 3339,
      "imal": 3340,
      "________": 3341,
      "apimanagement": 3342,
      "ush": 3343,
      "Ġconvert": 3344,
      "Patch": 3345,
      "98": 3346,
      "ĠĠĠĠĠĠĠĠĠĠĠĠĠĠĠĠĊ": 3347,
      "ffff": 3348,
      "ED": 3349,
      "Ġmodified": 3350,
      "ony": 3351,
      "report": 3352,
      "Record": 3353,
      "left": 3354,
      "enari": 3355,
      "ols": 3356,
      "case": 3357,
      "pages": 3358,
      "Ġdecompress": 3359,
      "Ġcolor": 3360,
      "ByType": 3361,
      "TH": 3362,
      "Ġfollow": 3363,
      "ĠQ": 3364,
      "lationship": 3365,
      "tests": 3366,
      ".\",": 3367,
      "\">": 3368,
      "36": 3369,
      "-]{": 3370,
      "ĠIt": 3371,
      "ribute": 3372,
      "available": 3373,
      "rai": 3374,
      ":`.": 3375,
      "acket": 3376,
      "Ġkind": 3377,
      "ĠCh": 3378,
      "Security": 3379,
      "Ġyield": 3380,
      "Ġsupplied": 3381,
      "Ġspecific": 3382,
      "nder": 3383,
      "ĠMicrosoft": 3384,
      "bind": 3385,
      "Ġwhether": 3386,
      "multi": 3387,
      "ffe": 3388,
      "Object": 3389,
      "tter": 3390,
      "ced": 3391,
      "velo": 3392,
      "gen": 3393,
      "events": 3394,
      "Ġthere": 3395,
      "LI": 3396,
      "conditions": 3397,
      "TC": 3398,
      "INT": 3399,
      "Per": 3400,
      "Ġsecret": 3401,
      "Ġobjects": 3402,
      "Ġpublic": 3403,
      "off": 3404,
      "loss": 3405,
      "Ġdiv": 3406,
      "before": 3407,
      "cast": 3408,
      "à¸Ļ": 3409,
      "ĠĠĠĠĠĠĠĠĠĠĠĠĠĠ": 3410,
      "Ġhasattr": 3411,
      "images": 3412,
      "caling": 3413,
      "register": 3414,
      "mas": 3415,
      "extract": 3416,
      "38": 3417,
      ")),": 3418,
      "ĠSh": 3419,
      "ĠRequest": 3420,
      "embed": 3421,
      "Ġretrie": 3422,
      "Count": 3423,
      "UR": 3424,
      "cores": 3425,
      "Ġscript": 3426,
      "={'": 3427,
      "DELETE": 3428,
      "Ġstyle": 3429,
      "Ġval": 3430,
      "filters": 3431,
      "nn": 3432,
      "quires": 3433,
      "dumps": 3434,
      "NAME": 3435,
      "pose": 3436,
      "Invalid": 3437,
      "Ġgenerate": 3438,
      "sas": 3439,
      "Reference": 3440,
      "Ġtransport": 3441,
      "proxy": 3442,
      "Ġpython": 3443,
      "Read": 3444,
      "Ġregion": 3445,
      "Ġrandom": 3446,
      "Ġtitle": 3447,
      "Options": 3448,
      "ĠWorkspace": 3449,
      "]+": 3450,
      "automation": 3451,
      "lector": 3452,
      "Search": 3453,
      "ResourceGroup": 3454,
      "Ġdt": 3455,
      "axis": 3456,
      "`.": 3457,
      "history": 3458,
      "vious": 3459,
      "su": 3460,
      "errors": 3461,
      "ranch": 3462,
      "Is": 3463,
      "leep": 3464,
      "commit": 3465,
      "21": 3466,
      "generated": 3467,
      "exception": 3468,
      "sure": 3469,
      "subject": 3470,
      "analyze": 3471,
      "ĠMock": 3472,
      "card": 3473,
      "artifacts": 3474,
      "Ġcle": 3475,
      "UE": 3476,
      "dig": 3477,
      "wd": 3478,
      "endpoints": 3479,
      "docs": 3480,
      "Ġpassword": 3481,
      "tree": 3482,
      "US": 3483,
      "termin": 3484,
      "enefit": 3485,
      "EX": 3486,
      "Ġlanguage": 3487,
      "ĠPossible": 3488,
      "String": 3489,
      "xx": 3490,
      "Plan": 3491,
      "ĠAtt": 3492,
      "uator": 3493,
      "structure": 3494,
      "ered": 3495,
      "true": 3496,
      "Cache": 3497,
      "Ġ</": 3498,
      "Ġbeen": 3499,
      "ĠVersion": 3500,
      "currency": 3501,
      "ÙĦ": 3502,
      "Results": 3503,
      "Ġnull": 3504,
      "Ġtransform": 3505,
      "Ġdataset": 3506,
      "Ġtokens": 3507,
      "annotations": 3508,
      "runtime": 3509,
      "logging": 3510,
      "Ð¸": 3511,
      "hoice": 3512,
      "Ġlevel": 3513,
      "Ġexperiment": 3514,
      "ting": 3515,
      "Point": 3516,
      "UpdateParameters": 3517,
      "allable": 3518,
      "assertNoHolidayName": 3519,
      "configs": 3520,
      "lover": 3521,
      "Params": 3522,
      "66": 3523,
      "Ġ'/": 3524,
      "trial": 3525,
      "ĠUpdate": 3526,
      "san": 3527,
      "Ġoutputs": 3528,
      "export": 3529,
      "=[\"": 3530,
      "PAT": 3531,
      "Connect": 3532,
      "ĠInference": 3533,
      "invalid": 3534,
      "archived": 3535,
      "Agent": 3536,
      "Ġexecution": 3537,
      "ench": 3538,
      "OT": 3539,
      "Ġold": 3540,
      "issing": 3541,
      "-_": 3542,
      "====": 3543,
      "override": 3544,
      "SO": 3545,
      "stant": 3546,
      "AZURE": 3547,
      "Bus": 3548,
      "80": 3549,
      "Ġfail": 3550,
      "ï¼": 3551,
      "ĠAdd": 3552,
      "html": 3553,
      "has": 3554,
      "Ġcontaining": 3555,
      "Ġrel": 3556,
      "Validation": 3557,
      "extend": 3558,
      "features": 3559,
      "dataset": 3560,
      "Ġresolver": 3561,
      "ValueError": 3562,
      "Ġsim": 3563,
      "\\\\": 3564,
      "agg": 3565,
      "}.": 3566,
      "lip": 3567,
      "Ad": 3568,
      "Ġindic": 3569,
      "Ġdownload": 3570,
      "Ġorigin": 3571,
      "tom": 3572,
      "Ġfailed": 3573,
      "VM": 3574,
      "primary": 3575,
      "allel": 3576,
      "monitor": 3577,
      "Iterable": 3578,
      "live": 3579,
      "Ġquant": 3580,
      "Ġtraining": 3581,
      "assertIn": 3582,
      "Project": 3583,
      "detection": 3584,
      "Monitor": 3585,
      "Ġperform": 3586,
      "strategy": 3587,
      "Ġchange": 3588,
      "alias": 3589,
      "onth": 3590,
      "78": 3591,
      "Ġreport": 3592,
      "serializer": 3593,
      "ĠCosmos": 3594,
      "cket": 3595,
      "Mgmt": 3596,
      "Ġform": 3597,
      "rel": 3598,
      "Schema": 3599,
      "fn": 3600,
      "Ġday": 3601,
      "deploy": 3602,
      "System": 3603,
      "second": 3604,
      "MA": 3605,
      "ÑĢ": 3606,
      "billing": 3607,
      "vo": 3608,
      "BasicResource": 3609,
      "acing": 3610,
      "Metadata": 3611,
      "ampling": 3612,
      "Expected": 3613,
      "tb": 3614,
      "amily": 3615,
      "cos": 3616,
      "ĠGets": 3617,
      "layer": 3618,
      "Ġexpand": 3619,
      "Scope": 3620,
      "$\"": 3621,
      "Ġwithout": 3622,
      "draw": 3623,
      "argin": 3624,
      "Ġpai": 3625,
      "Ġshared": 3626,
      "Quota": 3627,
      "since": 3628,
      "payload": 3629,
      "SS": 3630,
      "Ġtenant": 3631,
      "Ġfilename": 3632,
      "Sto": 3633,
      "Ġserial": 3634,
      "weep": 3635,
      "Ġanaly": 3636,
      "replication": 3637,
      "ĠDele": 3638,
      "abs": 3639,
      "ient": 3640,
      "Ġattribute": 3641,
      "ĠPolicy": 3642,
      "MgmtClient": 3643,
      "Ġhsp": 3644,
      "Size": 3645,
      "Ġmy": 3646,
      "ng": 3647,
      "Ġwarning": 3648,
      "ndarray": 3649,
      "samples": 3650,
      "Match": 3651,
      "ebook": 3652,
      "Ġarguments": 3653,
      "sets": 3654,
      "Ġlong": 3655,
      "Ġerr": 3656,
      "]*": 3657,
      "ĠPath": 3658,
      "liance": 3659,
      "Optional": 3660,
      "uted": 3661,
      "Ġinitial": 3662,
      "buffer": 3663,
      "Ġrepresent": 3664,
      "tion": 3665,
      "availability": 3666,
      "Required": 3667,
      "ĠDat": 3668,
      "SCRI": 3669,
      "transaction": 3670,
      "hit": 3671,
      "ilter": 3672,
      "Ġmark": 3673,
      "speci": 3674,
      "ĠWe": 3675,
      "ordinates": 3676,
      "Certificate": 3677,
      "ĠOpen": 3678,
      "ĠĠĠĠĠĠĠĠĠĠĠĠĠĠĠĠĠĠĠĠĠĠĠĠĠĠĠĠĠĠĠĠĠĠĠĠĠĠĠĠĠĠĠĠĠĠĠĠ": 3679,
      "Metric": 3680,
      "Role": 3681,
      "Ġfetch": 3682,
      "odule": 3683,
      "Ġpayload": 3684,
      "]),": 3685,
      "kubernetes": 3686,
      "kv": 3687,
      "SUB": 3688,
      "ithub": 3689,
      "hy": 3690,
      "variables": 3691,
      "Ġlambda": 3692,
      "SI": 3693,
      "Ġdim": 3694,
      "(\"/": 3695,
      "static": 3696,
      "ached": 3697,
      "bb": 3698,
      "idden": 3699,
      "ould": 3700,
      "where": 3701,
      "Ġar": 3702,
      "Ġ\"{": 3703,
      "}\".": 3704,
      "nodes": 3705,
      "ernal": 3706,
      "Ġsuccess": 3707,
      "driver": 3708,
      "Ġprimary": 3709,
      "Box": 3710,
      "123": 3711,
      "Le": 3712,
      "exist": 3713,
      "97": 3714,
      "256": 3715,
      "Ġstop": 3716,
      "istics": 3717,
      "agic": 3718,
      "Holidays": 3719,
      "bl": 3720,
      "Ġheight": 3721,
      "aaaa": 3722,
      "Ġ\",": 3723,
      "Ġprotection": 3724,
      "single": 3725,
      "ĠAr": 3726,
      "ĠSpecifies": 3727,
      "Category": 3728,
      "ross": 3729,
      "Ġroot": 3730,
      "Ġca": 3731,
      "oring": 3732,
      "dices": 3733,
      "br": 3734,
      "istr": 3735,
      "disable": 3736,
      "itive": 3737,
      "Clusters": 3738,
      "Web": 3739,
      "ĠDi": 3740,
      "force": 3741,
      "ĠTO": 3742,
      "allclose": 3743,
      "pattern": 3744,
      "si": 3745,
      "ĠGroup": 3746,
      "Ġsum": 3747,
      "(-": 3748,
      "verse": 3749,
      "ĠAsyncIterable": 3750,
      "nal": 3751,
      "sim": 3752,
      "ServiceClient": 3753,
      "35": 3754,
      "âĢ": 3755,
      "__()": 3756,
      "enario": 3757,
      "Ġreplace": 3758,
      "Ġstore": 3759,
      "Ġcallback": 3760,
      "tml": 3761,
      "Backup": 3762,
      "ĠExpression": 3763,
      "Ġran": 3764,
      "Ġdepend": 3765,
      "Ġmodels": 3766,
      "Log": 3767,
      "Ġelements": 3768,
      "Ġsent": 3769,
      "loads": 3770,
      "Ġextra": 3771,
      "MO": 3772,
      "option": 3773,
      "Ġadded": 3774,
      "las": 3775,
      "counter": 3776,
      "[[": 3777,
      "60": 3778,
      "Ġhit": 3779,
      "rist": 3780,
      "uda": 3781,
      "Auto": 3782,
      "sort": 3783,
      "OperationStatus": 3784,
      "Ġapply": 3785,
      "symbol": 3786,
      "prec": 3787,
      "Ġtrigger": 3788,
      "1234": 3789,
      "locations": 3790,
      "annel": 3791,
      "Ġstruct": 3792,
      "_-]{": 3793,
      "dated": 3794,
      "Ġnow": 3795,
      "records": 3796,
      "Ġalignment": 3797,
      "hello": 3798,
      "tocol": 3799,
      "classes": 3800,
      "CE": 3801,
      "yaml": 3802,
      "alog": 3803,
      "locks": 3804,
      "price": 3805,
      "Ġdeleted": 3806,
      "supported": 3807,
      "deleted": 3808,
      "Ġ\"$": 3809,
      "ĠKubernetes": 3810,
      "Ġrecords": 3811,
      "fetch": 3812,
      "ĠPy": 3813,
      "dent": 3814,
      "sv": 3815,
      "gre": 3816,
      "ĠOrganization": 3817,
      "rix": 3818,
      "servicebus": 3819,
      "prompt": 3820,
      "required": 3821,
      "Seq": 3822,
      "Assigned": 3823,
      "Sku": 3824,
      "Reg": 3825,
      "Ġ''": 3826,
      "fc": 3827,
      "requests": 3828,
      "Ġhtml": 3829,
      "ATION": 3830,
      "If": 3831,
      "Ġerrors": 3832,
      "edges": 3833,
      "Ġdig": 3834,
      "repr": 3835,
      "Ġsa": 3836,
      "Ġmod": 3837,
      "Updates": 3838,
      "ynchronous": 3839,
      "Ġter": 3840,
      "utor": 3841,
      "Ġforce": 3842,
      "ĠSQL": 3843,
      "ones": 3844,
      "Ñĸ": 3845,
      "Ġactual": 3846,
      "ves": 3847,
      "SCRIPTION": 3848,
      "called": 3849,
      "ground": 3850,
      "original": 3851,
      "PrivateLink": 3852,
      "Tag": 3853,
      "Ġabout": 3854,
      "sl": 3855,
      "Ġtrain": 3856,
      "Ġbsc": 3857,
      "Ġmask": 3858,
      "crets": 3859,
      "Ġexclude": 3860,
      "ĠHTTP": 3861,
      "à¸±": 3862,
      "Condition": 3863,
      "START": 3864,
      "cks": 3865,
      "ffix": 3866,
      "Ġexists": 3867,
      "steps": 3868,
      "exc": 3869,
      "Ġgenerated": 3870,
      "bsc": 3871,
      "Ġspan": 3872,
      "Ġmultiple": 3873,
      "plica": 3874,
      "ĠPrivate": 3875,
      "pin": 3876,
      "Ġdomain": 3877,
      "ributeError": 3878,
      "VAL": 3879,
      "ĠresultType": 3880,
      "Ġimg": 3881,
      "ickness": 3882,
      "origin": 3883,
      "ĠEvent": 3884,
      "olo": 3885,
      "Ġpublisher": 3886,
      "crop": 3887,
      "86": 3888,
      "requ": 3889,
      "Process": 3890,
      "Ġ12": 3891,
      "Pri": 3892,
      "ueue": 3893,
      "Ġ30": 3894,
      "regex": 3895,
      "NameAvailability": 3896,
      "Encryption": 3897,
      "Ġbound": 3898,
      "cap": 3899,
      "cell": 3900,
      "fully": 3901,
      "sing": 3902,
      "Ġidenti": 3903,
      "detections": 3904,
      "coded": 3905,
      "Ġfull": 3906,
      "oflow": 3907,
      "experiment": 3908,
      "Secret": 3909,
      "ĠĊ": 3910,
      "agnostic": 3911,
      "desc": 3912,
      "Ġprompt": 3913,
      "Ġenumer": 3914,
      "Ġsys": 3915,
      "Ġremo": 3916,
      "conf": 3917,
      "75": 3918,
      "ully": 3919,
      "oot": 3920,
      "tuple": 3921,
      "ĠĠĠĠĠĠĠĠĠĠĠĠĠĠĠĠĠĠĠĠĠĠĠĠĠĠĠĠĠĠĠĠĠĠĠĠĠĠĠ": 3922,
      "ailover": 3923,
      "Function": 3924,
      "fra": 3925,
      "Command": 3926,
      "ulation": 3927,
      "Ġemail": 3928,
      "learn": 3929,
      "proc": 3930,
      "Ġshow": 3931,
      "platform": 3932,
      "Ġhere": 3933,
      "culate": 3934,
      "ront": 3935,
      "tab": 3936,
      "wrap": 3937,
      "parser": 3938,
      "ialize": 3939,
      "ĠInput": 3940,
      "Ġcolumns": 3941,
      "(\"\"\"": 3942,
      "ĠFile": 3943,
      "46": 3944,
      "Open": 3945,
      "TEST": 3946,
      "ank": 3947,
      "Host": 3948,
      "\"][": 3949,
      "fferent": 3950,
      "concurrent": 3951,
      "Ġcla": 3952,
      "summar": 3953,
      "mbed": 3954,
      "Failed": 3955,
      "Ġ\"\\": 3956,
      "ested": 3957,
      "FO": 3958,
      "mapping": 3959,
      "\\-_": 3960,
      "Ġforward": 3961,
      "series": 3962,
      "Enabled": 3963,
      "ĠVirtual": 3964,
      "Ġparser": 3965,
      "ather": 3966,
      "Disk": 3967,
      "Ġencoding": 3968,
      "Target": 3969,
      "Ġfont": 3970,
      "shared": 3971,
      "Ġholiday": 3972,
      "Ġinteger": 3973,
      "agicMock": 3974,
      "ats": 3975,
      "temp": 3976,
      "Ġcorrect": 3977,
      "Ġactive": 3978,
      "Ġweb": 3979,
      "Ġsorted": 3980,
      "=(": 3981,
      "Ġview": 3982,
      "ategories": 3983,
      "Ġwindow": 3984,
      "processing": 3985,
      "anifest": 3986,
      "ĠĠĠĠĠĠĠĠĠĠĠĠĠĠĠĠĠĠ": 3987,
      "Ġarg": 3988,
      "ĠDoc": 3989,
      "inst": 3990,
      "uring": 3991,
      "Ġglobal": 3992,
      "Ġdocuments": 3993,
      "ensions": 3994,
      "This": 3995,
      "olve": 3996,
      "Ġvariable": 3997,
      "AAAA": 3998,
      "Package": 3999,
      "points": 4000,
      "Ġhealth": 4001,
      "Ġsetting": 4002,
      "oo": 4003,
      "uton": 4004,
      "usage": 4005,
      "Ġfollowing": 4006,
      "chang": 4007,
      "boot": 4008,
      "Ġaddress": 4009,
      "ĠEnvironment": 4010,
      "crypted": 4011,
      "Ġupload": 4012,
      "LECT": 4013,
      "github": 4014,
      "stats": 4015,
      "testation": 4016,
      "Ġtrue": 4017,
      "pth": 4018,
      "ÑĤ": 4019,
      "Ġalso": 4020,
      "adding": 4021,
      "known": 4022,
      "Ġlines": 4023,
      "real": 4024,
      "allowed": 4025,
      "Ġdel": 4026,
      "archive": 4027,
      "volume": 4028,
      "Ġposition": 4029,
      "metrics": 4030,
      "sleep": 4031,
      "ĠManaged": 4032,
      "ero": 4033,
      "Ġet": 4034,
      "configure": 4035,
      "sha": 4036,
      "ULT": 4037,
      "Ġenumerate": 4038,
      "ĠCl": 4039,
      "dns": 4040,
      "fit": 4041,
      "estimat": 4042,
      "ĠConfiguration": 4043,
      "complete": 4044,
      "internal": 4045,
      "Ġinvalid": 4046,
      "HTTP": 4047,
      "board": 4048,
      "95": 4049,
      "Scale": 4050,
      "ĠIterator": 4051,
      "Ġimages": 4052,
      "upported": 4053,
      "onnx": 4054,
      "áĢ": 4055,
      "Ġ&": 4056,
      "Ġentry": 4057,
      "datalake": 4058,
      "Ġplan": 4059,
      "(\\": 4060,
      "Ġprefix": 4061,
      "Ġkeyword": 4062,
      "upgrade": 4063,
      "Ġleft": 4064,
      "Arg": 4065,
      "Lab": 4066,
      "With": 4067,
      "Upload": 4068,
      "period": 4069,
      "ĠCol": 4070,
      "=\"{": 4071,
      "ä¸": 4072,
      "COPE": 4073,
      "kubernetesconfiguration": 4074,
      "ĠTODO": 4075,
      "cipe": 4076,
      "additional": 4077,
      "reset": 4078,
      "ifier": 4079,
      "detail": 4080,
      "rant": 4081,
      "Description": 4082,
      "usto": 4083,
      "rl": 4084,
      "ialect": 4085,
      "sumer": 4086,
      "ways": 4087,
      "merge": 4088,
      "'},": 4089,
      "days": 4090,
      "assigned": 4091,
      "Ġpacket": 4092,
      "ral": 4093,
      "Ġfully": 4094,
      "Ġdev": 4095,
      "conn": 4096,
      "Ġprevious": 4097,
      "Task": 4098,
      "]))": 4099,
      "livery": 4100,
      "Ġrealm": 4101,
      "built": 4102,
      "Store": 4103,
      "\\-_]{": 4104,
      "Ġcannot": 4105,
      "Ġui": 4106,
      "Ġservices": 4107,
      "Ġchallenge": 4108,
      ")[": 4109,
      "ision": 4110,
      "Ġcalled": 4111,
      "miss": 4112,
      "hen": 4113,
      "SUBSCRIPTION": 4114,
      ")}": 4115,
      "normal": 4116,
      "ACT": 4117,
      "__.": 4118,
      "ignore": 4119,
      "Tracked": 4120,
      "modules": 4121,
      "track": 4122,
      "à¸£": 4123,
      "principal": 4124,
      "acle": 4125,
      "tax": 4126,
      "ĠImage": 4127,
      "New": 4128,
      "extra": 4129,
      "Str": 4130,
      "Ġreceiver": 4131,
      "LD": 4132,
      "Ġuri": 4133,
      "TokenCredential": 4134,
      "notification": 4135,
      "dump": 4136,
      "Ġdefined": 4137,
      "à¸§": 4138,
      "GT": 4139,
      "Ġag": 4140,
      "Ġsite": 4141,
      "Ġcapacity": 4142,
      "authentication": 4143,
      "ues": 4144,
      "ROM": 4145,
      "iness": 4146,
      "KeyCredential": 4147,
      "undle": 4148,
      "transform": 4149,
      "Ġsome": 4150,
      "ĠVM": 4151,
      "ĠText": 4152,
      "Ġlayer": 4153,
      "Ġsync": 4154,
      "ĠAsyncIterator": 4155,
      "fieldname": 4156,
      "Ġsolution": 4157,
      "Ġsets": 4158,
      "Ġty": 4159,
      "world": 4160,
      "percent": 4161,
      "Accounts": 4162,
      "sku": 4163,
      "global": 4164,
      "Ġright": 4165,
      "TY": 4166,
      "forward": 4167,
      "serviceName": 4168,
      "clear": 4169,
      "Eval": 4170,
      "ĠSec": 4171,
      "just": 4172,
      "txt": 4173,
      "Module": 4174,
      "elements": 4175,
      "Ø§ÙĦ": 4176,
      "Ġsince": 4177,
      "Ġlinked": 4178,
      "prop": 4179,
      "Ġax": 4180,
      "Any": 4181,
      "}/{": 4182,
      "(\"\"\"\\": 4183,
      "okie": 4184,
      "ĠCallable": 4185,
      "SP": 4186,
      "Ġwarnings": 4187,
      "ĠStat": 4188,
      "uest": 4189,
      "Ġweight": 4190,
      "Ġlock": 4191,
      "intent": 4192,
      "Ġminimum": 4193,
      "voice": 4194,
      "yg": 4195,
      "ift": 4196,
      "XXXX": 4197,
      "progress": 4198,
      "Ġruntime": 4199,
      "rection": 4200,
      "ops": 4201,
      "requency": 4202,
      "Ġexpression": 4203,
      "eter": 4204,
      "Ġparsed": 4205,
      "Column": 4206,
      "Ġtrace": 4207,
      "sity": 4208,
      "URL": 4209,
      "assertFalse": 4210,
      "76": 4211,
      "Ġ\"--": 4212,
      "024": 4213,
      "ctx": 4214,
      "img": 4215,
      "ĠĠĠĠĠĠĠĠĠĠĠĠĠĠĠĠĠĠĠĠ": 4216,
      "recognizer": 4217,
      "refresh": 4218,
      "_(": 4219,
      "rapped": 4220,
      "Execution": 4221,
      "ucce": 4222,
      "ggreg": 4223,
      "Ġctx": 4224,
      "etry": 4225,
      "Ġ{},": 4226,
      "ell": 4227,
      "ators": 4228,
      "Ġcreation": 4229,
      ":`<": 4230,
      "Types": 4231,
      "SQL": 4232,
      "||": 4233,
      "Ġetag": 4234,
      "ĠUTC": 4235,
      "CONT": 4236,
      "cancel": 4237,
      "ration": 4238,
      "assessment": 4239,
      "dispatch": 4240,
      "Ġconnected": 4241,
      "Ġvector": 4242,
      "ĠDelete": 4243,
      "Ġbeing": 4244,
      "ĠValid": 4245,
      "IZE": 4246,
      "ĠSearch": 4247,
      "les": 4248,
      "Lists": 4249,
      "users": 4250,
      "ĠBatch": 4251,
      "manifest": 4252,
      "Ġrestore": 4253,
      "mbo": 4254,
      "Ġcontrol": 4255,
      "Ġgrad": 4256,
      "ĠĠĠĠĠĠĠĠĠĠĠĠĊ": 4257,
      "Build": 4258,
      "Ġspace": 4259,
      "****": 4260,
      "ational": 4261,
      "ipt": 4262,
      "ĠNote": 4263,
      "lect": 4264,
      "Ġplace": 4265,
      "Ġtimestamp": 4266,
      "UID": 4267,
      "Ñģ": 4268,
      "POINT": 4269,
      "reater": 4270,
      "Recovery": 4271,
      "updated": 4272,
      "rules": 4273,
      "54": 4274,
      "factor": 4275,
      "reason": 4276,
      "ernel": 4277,
      "88": 4278,
      "trigger": 4279,
      "Ġsap": 4280,
      "phone": 4281,
      "clusters": 4282,
      "owner": 4283,
      "Map": 4284,
      "ĠUse": 4285,
      "writ": 4286,
      "Ġartifact": 4287,
      "ours": 4288,
      "Ġhash": 4289,
      "Runtime": 4290,
      "Ġsetup": 4291,
      "Ġoverwrite": 4292,
      "ĠĠĠĠĠĠĠĠĠĠĠĠĠ": 4293,
      "throughput": 4294,
      "Ġdestination": 4295,
      "\"})": 4296,
      "ĠTypeError": 4297,
      "TR": 4298,
      "ili": 4299,
      "Ġfolder": 4300,
      "ygon": 4301,
      "Ġinternal": 4302,
      "thickness": 4303,
      "Standard": 4304,
      "labels": 4305,
      "AsyncIterator": 4306,
      "components": 4307,
      "CU": 4308,
      "ĠAccount": 4309,
      "ABLE": 4310,
      "na": 4311,
      "Ġbased": 4312,
      "creation": 4313,
      "Ġadmin": 4314,
      "('/": 4315,
      "ĠSubscription": 4316,
      "enci": 4317,
      "challenge": 4318,
      "matic": 4319,
      "pur": 4320,
      "prepare": 4321,
      "Ġdifferent": 4322,
      "ĠAnaly": 4323,
      "rincipal": 4324,
      "ĠAsyncSession": 4325,
      "Act": 4326,
      "Ġconn": 4327,
      "Ġidx": 4328,
      "rary": 4329,
      "ASE": 4330,
      "Resolver": 4331,
      "ius": 4332,
      "riend": 4333,
      "Ġstatement": 4334,
      "Ġalph": 4335,
      "Manager": 4336,
      "_,": 4337,
      "hybrid": 4338,
      "umbers": 4339,
      "route": 4340,
      "}:": 4341,
      "Ġscore": 4342,
      "Ġrunning": 4343,
      "ta": 4344,
      "ÙĬ": 4345,
      "ĠAuth": 4346,
      "timedelta": 4347,
      "added": 4348,
      "unique": 4349,
      "pid": 4350,
      "paths": 4351,
      "Deletes": 4352,
      "Ð¾Ð": 4353,
      "ĠToken": 4354,
      "show": 4355,
      "rec": 4356,
      "Ġiss": 4357,
      "fill": 4358,
      "ĠAccess": 4359,
      "oks": 4360,
      "keyvault": 4361,
      "Domain": 4362,
      "Ġgo": 4363,
      "à¸Ļà¸": 4364,
      "Ġscaling": 4365,
      "classification": 4366,
      "ViewType": 4367,
      "Kubernetes": 4368,
      "Ġnotification": 4369,
      "fast": 4370,
      "Filter": 4371,
      "drop": 4372,
      "ĠMagicMock": 4373,
      "Ġtrack": 4374,
      "memory": 4375,
      "loaded": 4376,
      "uses": 4377,
      "SCOPE": 4378,
      "lign": 4379,
      "ĠApi": 4380,
      "connected": 4381,
      "remote": 4382,
      "gres": 4383,
      "tmp": 4384,
      "rollment": 4385,
      "SION": 4386,
      "returns": 4387,
      "atten": 4388,
      "deployments": 4389,
      "registryName": 4390,
      "visible": 4391,
      "missing": 4392,
      "tier": 4393,
      "Inter": 4394,
      "uding": 4395,
      "existing": 4396,
      "57": 4397,
      "ocal": 4398,
      "Ġdns": 4399,
      "Ġupdating": 4400,
      "Ġstructure": 4401,
      "94": 4402,
      "redirect": 4403,
      "login": 4404,
      "tect": 4405,
      "cluding": 4406,
      "Start": 4407,
      "Ġselected": 4408,
      "like": 4409,
      "CR": 4410,
      "Ġwant": 4411,
      "ĠEnt": 4412,
      "AIN": 4413,
      "sec": 4414,
      "alled": 4415,
      "Context": 4416,
      "Ġchunk": 4417,
      "Us": 4418,
      "edis": 4419,
      "Ġsender": 4420,
      "-]*": 4421,
      "apps": 4422,
      "protection": 4423,
      "Returns": 4424,
      "ĠServices": 4425,
      "FA": 4426,
      "entic": 4427,
      "Ġduration": 4428,
      "Ġhy": 4429,
      "Ġcounter": 4430,
      "prob": 4431,
      "ĠSpecify": 4432,
      "$\",": 4433,
      "Net": 4434,
      "Ġregistration": 4435,
      "[\"$": 4436,
      "poch": 4437,
      "omous": 4438,
      "cosmos": 4439,
      "utonomous": 4440,
      "1111": 4441,
      "riendly": 4442,
      "chunk": 4443,
      "tered": 4444,
      "rivacy": 4445,
      "www": 4446,
      "fg": 4447,
      "Ġproxy": 4448,
      "Py": 4449,
      "Ġam": 4450,
      "ertificates": 4451,
      "ristmas": 4452,
      "Ġ1024": 4453,
      "aio": 4454,
      "Ġprovide": 4455,
      "Ġevents": 4456,
      "dc": 4457,
      "ugin": 4458,
      "lossary": 4459,
      "sw": 4460,
      "Share": 4461,
      "cessed": 4462,
      "unit": 4463,
      "unication": 4464,
      "Sync": 4465,
      "Ġ'''": 4466,
      "years": 4467,
      "Fl": 4468,
      "ĠTuple": 4469,
      "ĠSAP": 4470,
      "spe": 4471,
      "Ġargument": 4472,
      "prise": 4473,
      "atches": 4474,
      "ĠURI": 4475,
      "Ġlower": 4476,
      "NS": 4477,
      "Ġcons": 4478,
      "note": 4479,
      "ik": 4480,
      "fs": 4481,
      "restore": 4482,
      "lex": 4483,
      "identifier": 4484,
      "Ġdoctype": 4485,
      "ia": 4486,
      "indexes": 4487,
      "cause": 4488,
      "zeros": 4489,
      "Organization": 4490,
      "atom": 4491,
      "Ġthey": 4492,
      "Ġsc": 4493,
      "Migration": 4494,
      "Ġvideo": 4495,
      "Ġgraph": 4496,
      "Ġsm": 4497,
      "AGE": 4498,
      "EST": 4499,
      "scaling": 4500,
      "ENDPOINT": 4501,
      "encies": 4502,
      "Frame": 4503,
      "keep": 4504,
      "Ġconfidence": 4505,
      "angle": 4506,
      "Ġsku": 4507,
      "istered": 4508,
      "zz": 4509,
      "ĠTime": 4510,
      "props": 4511,
      "USER": 4512,
      "encoding": 4513,
      "curs": 4514,
      "}}": 4515,
      "Ġmapping": 4516,
      "Ġrequires": 4517,
      "Ġ9": 4518,
      "Min": 4519,
      "pu": 4520,
      "Ġloc": 4521,
      "Ġfinally": 4522,
      "tempt": 4523,
      "workflows": 4524,
      "Ġ-----": 4525,
      "Ġexport": 4526,
      "Inference": 4527,
      "Ġpos": 4528,
      "etplace": 4529,
      "ilities": 4530,
      "Ġ\"\",": 4531,
      "acks": 4532,
      "expand": 4533,
      "He": 4534,
      "states": 4535,
      "pub": 4536,
      "atur": 4537,
      "Ġprops": 4538,
      "77": 4539,
      "Fabric": 4540,
      "audio": 4541,
      "Ġgateway": 4542,
      "asset": 4543,
      "ĠOr": 4544,
      "ĠTh": 4545,
      "Ġusername": 4546,
      "cuda": 4547,
      "Export": 4548,
      "Load": 4549,
      "ĠWork": 4550,
      "Template": 4551,
      "simple": 4552,
      "Fix": 4553,
      "havi": 4554,
      "alignment": 4555,
      "Ð½Ñ": 4556,
      "bile": 4557,
      "ĠSee": 4558,
      "-\\": 4559,
      "failure": 4560,
      "ĠCompute": 4561,
      "feed": 4562,
      "Ġspecify": 4563,
      "Ġbind": 4564,
      "Notification": 4565,
      "Ġremoved": 4566,
      "capacity": 4567,
      "bal": 4568,
      "cho": 4569,
      "onymous": 4570,
      "sanit": 4571,
      "HE": 4572,
      "Ġmanager": 4573,
      "Ġasyncio": 4574,
      "\"\\": 4575,
      "Ġrender": 4576,
      "Ġtopic": 4577,
      "Ġabs": 4578,
      "Ġtransaction": 4579,
      "Transport": 4580,
      "olute": 4581,
      "endar": 4582,
      "else": 4583,
      "Ġvariables": 4584,
      "pture": 4585,
      "Ġenv": 4586,
      "edia": 4587,
      "ĠComponent": 4588,
      "tp": 4589,
      "ĠWrite": 4590,
      "Ġ_,": 4591,
      "Be": 4592,
      "Ġxml": 4593,
      "skill": 4594,
      "ewx": 4595,
      "Ġannotations": 4596,
      "ĠInstance": 4597,
      "Ġpk": 4598,
      "ually": 4599,
      "à¸²": 4600,
      "verbo": 4601,
      "ledge": 4602,
      "Ġassignment": 4603,
      "WOR": 4604,
      "algorithm": 4605,
      "myResourceGroup": 4606,
      "igrate": 4607,
      "Ġoptim": 4608,
      "tables": 4609,
      "Ġagain": 4610,
      "Ġexpiry": 4611,
      "topic": 4612,
      "Ġyaml": 4613,
      "Cosmos": 4614,
      "Ġprogress": 4615,
      "leg": 4616,
      "aggreg": 4617,
      "63": 4618,
      "Ġte": 4619,
      "Center": 4620,
      "dul": 4621,
      "duc": 4622,
      "utdown": 4623,
      "Ġunit": 4624,
      "ĠYou": 4625,
      "SIZE": 4626,
      "Port": 4627,
      "Ġbecause": 4628,
      "Ġ15": 4629,
      "mitted": 4630,
      "works": 4631,
      "\"}],": 4632,
      "Ġzip": 4633,
      "Ġcap": 4634,
      "nels": 4635,
      "flags": 4636,
      "(\"\\": 4637,
      "utton": 4638,
      "person": 4639,
      "Ġimplement": 4640,
      "PolicyAction": 4641,
      "relation": 4642,
      "ĠDo": 4643,
      "ContainerResourceArmPaginatedResult": 4644,
      "ROR": 4645,
      "make": 4646,
      "rows": 4647,
      "ĠAsset": 4648,
      "ĠApplication": 4649,
      "sensor": 4650,
      "ocker": 4651,
      "parts": 4652,
      "Import": 4653,
      "also": 4654,
      "anti": 4655,
      "Ġspec": 4656,
      "Ġdriver": 4657,
      "agination": 4658,
      "segment": 4659,
      "Ġduring": 4660,
      "izes": 4661,
      "sto": 4662,
      "Ġalways": 4663,
      "olean": 4664,
      "Hel": 4665,
      "once": 4666,
      "asynchronous": 4667,
      "æĹ": 4668,
      "ĠØ§ÙĦ": 4669,
      "dest": 4670,
      "Ġqresult": 4671,
      "semb": 4672,
      "NO": 4673,
      "pix": 4674,
      "Ġchanges": 4675,
      "Ġ[])": 4676,
      "Ġreason": 4677,
      "Ġdon": 4678,
      "support": 4679,
      "mx": 4680,
      "ws": 4681,
      "Ġ50": 4682,
      "Ġholidays": 4683,
      "ĠDis": 4684,
      "Ġfilters": 4685,
      "straints": 4686,
      "dout": 4687,
      "Ġconfigure": 4688,
      "atalog": 4689,
      "migration": 4690,
      "Ġservicebus": 4691,
      "cover": 4692,
      "Ġinstead": 4693,
      "Url": 4694,
      "meth": 4695,
      "Ġlib": 4696,
      "ulator": 4697,
      "abilities": 4698,
      "Ġcreating": 4699,
      "RRRR": 4700,
      "Sele": 4701,
      "Ġtimes": 4702,
      "VE": 4703,
      "Ġprob": 4704,
      "ERROR": 4705,
      "ferred": 4706,
      "optional": 4707,
      "dims": 4708,
      "ĠDate": 4709,
      "eventhub": 4710,
      "bench": 4711,
      "ĠBase": 4712,
      "\"}},": 4713,
      "Ġmetrics": 4714,
      "SELECT": 4715,
      "Ġcharacter": 4716,
      "Ġresponses": 4717,
      "Ġbyte": 4718,
      "]]:": 4719,
      "ĠOutput": 4720,
      "ĠDeployment": 4721,
      "Ġdum": 4722,
      "STR": 4723,
      "Ġatol": 4724,
      "Ġnumpy": 4725,
      "My": 4726,
      "Ġstandard": 4727,
      "()),": 4728,
      "calls": 4729,
      ")\"),": 4730,
      "Ġoperator": 4731,
      "Ġreceived": 4732,
      "itch": 4733,
      "Ġlabels": 4734,
      "Ġskill": 4735,
      "abc": 4736,
      "84": 4737,
      "lis": 4738,
      "ĠDef": 4739,
      "Ġbl": 4740,
      "media": 4741,
      "Admin": 4742,
      "Classification": 4743,
      "Ġsrc": 4744,
      "anc": 4745,
      "eff": 4746,
      "Ġinterval": 4747,
      "ude": 4748,
      "stru": 4749,
      "MP": 4750,
      "evaluation": 4751,
      "Ġincluded": 4752,
      "csv": 4753,
      "Ġrai": 4754,
      "gnitive": 4755,
      "ĠPre": 4756,
      "`,": 4757,
      "dge": 4758,
      "setdefault": 4759,
      "subdiv": 4760,
      "Ġchoice": 4761,
      "()))": 4762,
      "prediction": 4763,
      "Partition": 4764,
      "QueryParams": 4765,
      "fin": 4766,
      "ender": 4767,
      "xyxy": 4768,
      "ĠLog": 4769,
      "Ġexecute": 4770,
      "Ġparty": 4771,
      "Ġpost": 4772,
      "ogle": 4773,
      "Ġactions": 4774,
      "connector": 4775,
      "variable": 4776,
      "exit": 4777,
      "Card": 4778,
      "Warning": 4779,
      "ends": 4780,
      "GetResults": 4781,
      "minutes": 4782,
      "mut": 4783,
      "req": 4784,
      "Ġ$": 4785,
      "ĠDefaults": 4786,
      "Ġthem": 4787,
      "opt": 4788,
      ")\",": 4789,
      "Head": 4790,
      "allback": 4791,
      "ĠProperties": 4792,
      "MAX": 4793,
      "Conditions": 4794,
      "Lim": 4795,
      "stri": 4796,
      "Gallery": 4797,
      "ee": 4798,
      "layout": 4799,
      "lict": 4800,
      "LOW": 4801,
      "font": 4802,
      "createdBy": 4803,
      "cert": 4804,
      "dered": 4805,
      "por": 4806,
      "definitions": 4807,
      "Ġdedent": 4808,
      "given": 4809,
      "sheet": 4810,
      "gistries": 4811,
      "Ġalert": 4812,
      "ĠProduct": 4813,
      "Partial": 4814,
      "Ġchanged": 4815,
      "anup": 4816,
      "Ġjust": 4817,
      "ĠQuery": 4818,
      "velope": 4819,
      "atcher": 4820,
      "rectory": 4821,
      "summary": 4822,
      "gallery": 4823,
      "Resources": 4824,
      "Ġge": 4825,
      "ims": 4826,
      "Ġdraw": 4827,
      "åı": 4828,
      "ĠCo": 4829,
      "Ġcheckout": 4830,
      "boflow": 4831,
      "ĠĠĠĠĠĠĠĠĠĠĠĠĠĠĠĠĠ": 4832,
      "ranges": 4833,
      "Lin": 4834,
      "ĠAuto": 4835,
      "annels": 4836,
      "Ġbias": 4837,
      "byte": 4838,
      "Of": 4839,
      "instances": 4840,
      "Ġverify": 4841,
      "Sign": 4842,
      "conv": 4843,
      "ĠCre": 4844,
      "textanalytics": 4845,
      "Ġlearning": 4846,
      "accountName": 4847,
      "ĠStatus": 4848,
      "Enum": 4849,
      "Sum": 4850,
      "ĠClo": 4851,
      "esc": 4852,
      "ident": 4853,
      "ĠFROM": 4854,
      "\".\"": 4855,
      "ĠĠĠĠĠĠĠĠĠĠĠĠĠĠĠĠĠĠĠĠĠĠĠĠĠĠĠĠ": 4856,
      "ĠSeqRecord": 4857,
      "FAULT": 4858,
      "Ġmulti": 4859,
      "audit": 4860,
      "tasks": 4861,
      "Protection": 4862,
      "Ġhandler": 4863,
      "ĠWhether": 4864,
      "---------": 4865,
      "permissions": 4866,
      "quality": 4867,
      "Ġassigned": 4868,
      "ens": 4869,
      "Ġremote": 4870,
      "Ġface": 4871,
      "ĠServer": 4872,
      "controller": 4873,
      "Ġusage": 4874,
      "zero": 4875,
      "Integration": 4876,
      "Ġtree": 4877,
      "Ġfp": 4878,
      "ĠExtension": 4879,
      "havior": 4880,
      "Ġ\"\")": 4881,
      "distribution": 4882,
      "').": 4883,
      "Ġbilling": 4884,
      "testing": 4885,
      "uplic": 4886,
      "ĠYear": 4887,
      "ĠOnline": 4888,
      "ui": 4889,
      "ector": 4890,
      "AINER": 4891,
      "ĠSerializ": 4892,
      "ĠCode": 4893,
      "Ġsv": 4894,
      "Ġmath": 4895,
      "compi": 4896,
      "Ġoverride": 4897,
      "stants": 4898,
      "Ġ--": 4899,
      "mbols": 4900,
      "ĠWeb": 4901,
      "Asset": 4902,
      "44444444": 4903,
      "ĠAl": 4904,
      "Ġmigration": 4905,
      "pring": 4906,
      "DAT": 4907,
      "ulner": 4908,
      "Ġnodes": 4909,
      "windows": 4910,
      "Tool": 4911,
      "wall": 4912,
      "alph": 4913,
      "Ġcomplete": 4914,
      "37": 4915,
      "hs": 4916,
      "examples": 4917,
      "ĠFl": 4918,
      "lying": 4919,
      "boxes": 4920,
      "atio": 4921,
      "moj": 4922,
      "Ġuamqp": 4923,
      "Ġ24": 4924,
      "Ġletter": 4925,
      "dings": 4926,
      "posed": 4927,
      "bias": 4928,
      "Ġpairs": 4929,
      "her": 4930,
      "ĠNew": 4931,
      "latest": 4932,
      "Ġtf": 4933,
      "Ġph": 4934,
      "sys": 4935,
      "dedent": 4936,
      "blocklist": 4937,
      "dot": 4938,
      "Ġps": 4939,
      "gine": 4940,
      "ĠAttributeError": 4941,
      "cmd": 4942,
      "ĠWhen": 4943,
      "Assessment": 4944,
      "categories": 4945,
      "celer": 4946,
      "Ġwould": 4947,
      "WorkspaceConnection": 4948,
      "annotation": 4949,
      "Ġbuffer": 4950,
      "Ġdatalake": 4951,
      "processor": 4952,
      "Created": 4953,
      "receive": 4954,
      "ĠBlobServiceClient": 4955,
      "verify": 4956,
      "Ġcert": 4957,
      "ibility": 4958,
      "servers": 4959,
      "localhost": 4960,
      "lice": 4961,
      "Ġacc": 4962,
      "duler": 4963,
      "Ġnormal": 4964,
      "warn": 4965,
      "ĠSource": 4966,
      "ĠSche": 4967,
      "ĠValue": 4968,
      "85": 4969,
      "Ġpe": 4970,
      "Ġrepository": 4971,
      "Ġstack": 4972,
      "Product": 4973,
      "Property": 4974,
      "ba": 4975,
      "ValidationError": 4976,
      "UP": 4977,
      "gateway": 4978,
      "ilar": 4979,
      "ĠManager": 4980,
      "Workflow": 4981,
      "Ġentities": 4982,
      "DateTime": 4983,
      "uint": 4984,
      "entries": 4985,
      "Transform": 4986,
      "yolo": 4987,
      "quer": 4988,
      "Ġreq": 4989,
      "Ġpages": 4990,
      "Ġpagination": 4991,
      "Ġexce": 4992,
      "Ġfill": 4993,
      "LL": 4994,
      "SM": 4995,
      "indices": 4996,
      "Analytics": 4997,
      ":]": 4998,
      "Do": 4999,
      "HER": 5000,
      "mium": 5001,
      "CK": 5002,
      "HO": 5003,
      "\\._": 5004,
      "fa": 5005,
      "respon": 5006,
      "Ġ\"-": 5007,
      "KeyVault": 5008,
      "license": 5009,
      "Ġthreshold": 5010,
      "ulnerability": 5011,
      "rm": 5012,
      "gram": 5013,
      "Ġdoesn": 5014,
      "GC": 5015,
      "Validate": 5016,
      "ackw": 5017,
      "apply": 5018,
      "Quant": 5019,
      "alignments": 5020,
      "Ġstored": 5021,
      "Dev": 5022,
      "payment": 5023,
      "']['": 5024,
      "DN": 5025,
      "country": 5026,
      "assertIs": 5027,
      "Ġprevent": 5028,
      "dynamic": 5029,
      "Ġrtb": 5030,
      "CTION": 5031,
      "enance": 5032,
      "chain": 5033,
      "Ġaxis": 5034,
      "guid": 5035,
      "hecks": 5036,
      "external": 5037,
      "readonly": 5038,
      "Customer": 5039,
      "Ġportal": 5040,
      "roker": 5041,
      "Ġmissing": 5042,
      "nextLink": 5043,
      "eling": 5044,
      "ategorical": 5045,
      "CONTAINER": 5046,
      "Speci": 5047,
      "hat": 5048,
      "rr": 5049,
      "Ġversions": 5050,
      "caption": 5051,
      "stributed": 5052,
      "Ġ19": 5053,
      "Ġalias": 5054,
      "sites": 5055,
      "Address": 5056,
      "choices": 5057,
      "Script": 5058,
      "resp": 5059,
      "metal": 5060,
      "Encoder": 5061,
      "ĠĠĠĠĠĠĠĠĠĠĠĠĠĠĠĠĠĠĠĠĠĠĠĠĠĠĠĠĠĠĠĠĠ": 5062,
      "subnet": 5063,
      "ideo": 5064,
      "ĠCustomer": 5065,
      "89": 5066,
      "Fe": 5067,
      "Handler": 5068,
      "parallel": 5069,
      "ackward": 5070,
      "PS": 5071,
      "ĠDE": 5072,
      "OperationStatusResult": 5073,
      "fake": 5074,
      "Ġrevision": 5075,
      "ives": 5076,
      "Ġseealso": 5077,
      "commend": 5078,
      "ucceeded": 5079,
      "online": 5080,
      "Ġ'%": 5081,
      "Ġboth": 5082,
      "Order": 5083,
      "rb": 5084,
      "envelope": 5085,
      "Ġdown": 5086,
      "87": 5087,
      "Ġfn": 5088,
      "2017": 5089,
      "ĠServiceBus": 5090,
      "Ġ-------": 5091,
      "chor": 5092,
      "Fixture": 5093,
      "Cur": 5094,
      "except": 5095,
      "packet": 5096,
      "ticle": 5097,
      "clus": 5098,
      "andby": 5099,
      "Ġcommit": 5100,
      "ffect": 5101,
      ")\"": 5102,
      "BU": 5103,
      "Ġsuch": 5104,
      "LIENT": 5105,
      "Zone": 5106,
      "itude": 5107,
      "Ġatom": 5108,
      "Ġcommands": 5109,
      "ĠEntity": 5110,
      "Ġoption": 5111,
      "Uri": 5112,
      "try": 5113,
      "Ġdetections": 5114,
      "GN": 5115,
      "Ġsoft": 5116,
      "extensions": 5117,
      "Mark": 5118,
      "ĠĠĠĠĠĠĠĠĠĠĠĠĠĠĠĠĠĠĠĠĠĠĠĠĠĠĠĠĠ": 5119,
      "Ġrows": 5120,
      "wrapper": 5121,
      "serialized": 5122,
      "Report": 5123,
      "Implement": 5124,
      "family": 5125,
      "ving": 5126,
      "peat": 5127,
      "Ġreplication": 5128,
      "Ġ{}\".": 5129,
      "Ġtimedelta": 5130,
      "rowser": 5131,
      "\"^[-\\": 5132,
      "ĠAS": 5133,
      "ducer": 5134,
      "Write": 5135,
      "icode": 5136,
      "ĠĠĠĠĠĠĠĠĠĠĠĠĠĠĠĠĠĠĠĠĠĠĠĠĠĠ": 5137,
      "letter": 5138,
      "CI": 5139,
      "pair": 5140,
      "astic": 5141,
      "``.": 5142,
      "Ġengine": 5143,
      "DIR": 5144,
      "ĠRuntime": 5145,
      "[:,": 5146,
      "Ġquota": 5147,
      "ĠIN": 5148,
      "Trigger": 5149,
      "don": 5150,
      "SAP": 5151,
      "basic": 5152,
      "Ġ1000": 5153,
      "Local": 5154,
      "Ø±": 5155,
      "loop": 5156,
      "ĠLink": 5157,
      "001": 5158,
      "Ġalignments": 5159,
      "Atlas": 5160,
      "optim": 5161,
      "Ø¯": 5162,
      "Ġpop": 5163,
      "outs": 5164,
      "comment": 5165,
      "createdAt": 5166,
      "VERSION": 5167,
      "Pass": 5168,
      "fd": 5169,
      "aps": 5170,
      "=-": 5171,
      "Ġotherwise": 5172,
      "poller": 5173,
      "ĠSerializer": 5174,
      "large": 5175,
      "ĠĠĠĠĠĠĠĠĠĠĠĠĠĠĠĠĠĠĠĠĠĠ": 5176,
      "dec": 5177,
      "Post": 5178,
      "tain": 5179,
      "ished": 5180,
      "Ġliteral": 5181,
      "ian": 5182,
      "rink": 5183,
      "formrecognizer": 5184,
      "ĠNetwork": 5185,
      "rong": 5186,
      "Ġaggreg": 5187,
      "Ġbackend": 5188,
      "Ġdefaults": 5189,
      "okup": 5190,
      "flag": 5191,
      "_{": 5192,
      "concurrency": 5193,
      "Ġconstruct": 5194,
      "Ġissue": 5195,
      "socket": 5196,
      "buf": 5197,
      "Ġhow": 5198,
      "twin": 5199,
      "HERE": 5200,
      "failed": 5201,
      "integration": 5202,
      "Ġwrapper": 5203,
      ")).": 5204,
      "uture": 5205,
      "Ġassessment": 5206,
      "tended": 5207,
      "xed": 5208,
      "Sim": 5209,
      "pg": 5210,
      "currence": 5211,
      "based": 5212,
      "40": 5213,
      "ada": 5214,
      "Ġcontainers": 5215,
      "uble": 5216,
      "Ġ'.": 5217,
      "ĉĉĉĉĉ": 5218,
      "hostname": 5219,
      "ĠDocument": 5220,
      "Ġrelease": 5221,
      "Ġhigh": 5222,
      "Ġtimezone": 5223,
      "CodeVersion": 5224,
      "rigin": 5225,
      "statement": 5226,
      "Ġtrial": 5227,
      "Ġ90": 5228,
      "Ġsure": 5229,
      "ivation": 5230,
      "Init": 5231,
      "Health": 5232,
      "Ġpur": 5233,
      "insights": 5234,
      "TYPE": 5235,
      "OperationResult": 5236,
      "AUT": 5237,
      "ĠError": 5238,
      "registration": 5239,
      "Ġfinal": 5240,
      "iod": 5241,
      "Ġ//": 5242,
      "Ġworkload": 5243,
      "pending": 5244,
      "Gateway": 5245,
      "Ġside": 5246,
      "verage": 5247,
      "Ġprovisioning": 5248,
      "ĠNumber": 5249,
      "Ġcould": 5250,
      "Window": 5251,
      "Ġ60": 5252,
      "Out": 5253,
      "Ġaudio": 5254,
      "Datastore": 5255,
      "Ġlive": 5256,
      "OnlineDeployment": 5257,
      "require": 5258,
      "-%": 5259,
      "plot": 5260,
      "src": 5261,
      "Ð²": 5262,
      "Ø¹": 5263,
      "ĠIP": 5264,
      "sanitizer": 5265,
      "td": 5266,
      "zen": 5267,
      "until": 5268,
      "Ġsymbol": 5269,
      "]]]": 5270,
      "ComponentVersion": 5271,
      "ĠDeserializer": 5272,
      "frastructure": 5273,
      "hand": 5274,
      "uate": 5275,
      "Namespace": 5276,
      "PropertiesBasicResource": 5277,
      "dicated": 5278,
      "ĠReturn": 5279,
      "digital": 5280,
      "Ġtheir": 5281,
      "tep": 5282,
      "ĠFabric": 5283,
      "ĠĠĠĠĠĠĠĠĠĠĠĠĠĠĠĠĠĠĠĠĠĠĠĠĠĠĠĠĠĠ": 5284,
      "commands": 5285,
      "nowledge": 5286,
      "pixels": 5287,
      "hd": 5288,
      "Ġevaluator": 5289,
      "65": 5290,
      "PRO": 5291,
      "literal": 5292,
      "Ġembed": 5293,
      "received": 5294,
      "Ġsplit": 5295,
      "1024": 5296,
      "ĠTrans": 5297,
      "Ġclear": 5298,
      "lick": 5299,
      "Ġdeploy": 5300,
      "Ġest": 5301,
      "Ġconsumer": 5302,
      "254": 5303,
      "thesis": 5304,
      "91": 5305,
      "Capacity": 5306,
      "PAR": 5307,
      "VIC": 5308,
      "}'.": 5309,
      "ĠTag": 5310,
      "visit": 5311,
      "Ġconf": 5312,
      "Ġavailability": 5313,
      "THH": 5314,
      "cn": 5315,
      "Ġast": 5316,
      "publisher": 5317,
      "ampl": 5318,
      "accounts": 5319,
      "Ð»": 5320,
      "fiers": 5321,
      "zip": 5322,
      "registries": 5323,
      "acro": 5324,
      "joint": 5325,
      "receiver": 5326,
      "mediate": 5327,
      "Dto": 5328,
      "FLOW": 5329,
      "autom": 5330,
      "mongo": 5331,
      "Ġ[[": 5332,
      "crement": 5333,
      "ĠCluster": 5334,
      "Strategy": 5335,
      "bject": 5336,
      "Ð´": 5337,
      "ddTHH": 5338,
      "chart": 5339,
      "Ins": 5340,
      "Ġtmp": 5341,
      "BatchDeployment": 5342,
      "signature": 5343,
      "parator": 5344,
      "endpointName": 5345,
      "Ġdigital": 5346,
      "break": 5347,
      "repository": 5348,
      "attach": 5349,
      "_.": 5350,
      "null": 5351,
      "forms": 5352,
      "Ġevaluation": 5353,
      "eni": 5354,
      "Ġstripe": 5355,
      "AF": 5356,
      "CES": 5357,
      "anonymous": 5358,
      "logs": 5359,
      "Ġrelative": 5360,
      "roles": 5361,
      "Lake": 5362,
      "scrib": 5363,
      "gb": 5364,
      "rozen": 5365,
      "Ġmer": 5366,
      "tract": 5367,
      "odon": 5368,
      "estimated": 5369,
      "}]": 5370,
      "ĠGener": 5371,
      "yolov": 5372,
      "uous": 5373,
      "privacy": 5374,
      "relationship": 5375,
      "ssZ": 5376,
      "Ġneeded": 5377,
      "depth": 5378,
      "ĠFeature": 5379,
      "Rout": 5380,
      "ALL": 5381,
      "42": 5382,
      "roboflow": 5383,
      "Ġdocs": 5384,
      "ScaleSet": 5385,
      "EM": 5386,
      "multiple": 5387,
      "png": 5388,
      "Restore": 5389,
      "Ġ25": 5390,
      "]])": 5391,
      "aka": 5392,
      "ĠQueue": 5393,
      "Public": 5394,
      "Ġ\"%": 5395,
      "PATH": 5396,
      "PrivateLinkResource": 5397,
      "Ġpsutil": 5398,
      "From": 5399,
      "([\"": 5400,
      "tools": 5401,
      "Replication": 5402,
      "ixin": 5403,
      "Device": 5404,
      "ApiManagement": 5405,
      "spark": 5406,
      "Ġdetail": 5407,
      "ĠCloud": 5408,
      "ssite": 5409,
      "servicessite": 5410,
      "andra": 5411,
      "recoveryservicessite": 5412,
      "Ġfeed": 5413,
      "recoveryservicessiterecovery": 5414,
      "CLIENT": 5415,
      "upper": 5416,
      "assandra": 5417,
      "sap": 5418,
      "Ġparts": 5419,
      "ManagedIdentity": 5420,
      "binding": 5421,
      "align": 5422,
      "setUp": 5423,
      "TER": 5424,
      "meter": 5425,
      "Ġzero": 5426,
      "Ġcalc": 5427,
      "EnvironmentVersion": 5428,
      "projects": 5429,
      "expression": 5430,
      "provisioningState": 5431,
      "istrator": 5432,
      "atest": 5433,
      "('''": 5434,
      "Non": 5435,
      "initializ": 5436,
      "Ġensure": 5437,
      "Ġcoordinates": 5438,
      "bottom": 5439,
      "45": 5440,
      "serve": 5441,
      "scenario": 5442,
      "TIM": 5443,
      "trained": 5444,
      "rand": 5445,
      "Information": 5446,
      "Ġdatastore": 5447,
      "3333": 5448,
      "qa": 5449,
      "unmodified": 5450,
      "Only": 5451,
      "ose": 5452,
      "entral": 5453,
      "2016": 5454,
      "Ġ,": 5455,
      "Wall": 5456,
      "Ġbranch": 5457,
      "Ġdecor": 5458,
      "mover": 5459,
      "collector": 5460,
      "expires": 5461,
      "probs": 5462,
      "WORK": 5463,
      "Ġprediction": 5464,
      "times": 5465,
      "recoveryservices": 5466,
      "mediation": 5467,
      "expiry": 5468,
      "duce": 5469,
      "Ġ[{": 5470,
      "Ġdone": 5471,
      "ĠRun": 5472,
      "derr": 5473,
      "secrets": 5474,
      "Ġinner": 5475,
      "Ġbelong": 5476,
      "Ġencoded": 5477,
      "Ġmeta": 5478,
      "sender": 5479,
      "CA": 5480,
      "vitation": 5481,
      "Ġreal": 5482,
      "\":\"": 5483,
      "CS": 5484,
      "tions": 5485,
      "Ġsas": 5486,
      "linear": 5487,
      "rieve": 5488,
      ">`.": 5489,
      "ĠPython": 5490,
      "Ð½ÑĮ": 5491,
      "systemData": 5492,
      "contact": 5493,
      "Ġtests": 5494,
      "shard": 5495,
      "Vm": 5496,
      "tri": 5497,
      "Ġclusters": 5498,
      "angular": 5499,
      "effect": 5500,
      "Ġdetermin": 5501,
      "cipi": 5502,
      "lastModifiedAt": 5503,
      "hip": 5504,
      "rewall": 5505,
      "Analyze": 5506,
      "changed": 5507,
      "cursive": 5508,
      "Ġyears": 5509,
      "cipient": 5510,
      "mount": 5511,
      "Ġgreater": 5512,
      "Ġchildren": 5513,
      "counts": 5514,
      "arer": 5515,
      "ragment": 5516,
      "oT": 5517,
      "ru": 5518,
      "Ġins": 5519,
      "ĠOther": 5520,
      "createdByType": 5521,
      "Ġregister": 5522,
      "channels": 5523,
      "Ġ[-": 5524,
      "Ġworld": 5525,
      "lastModifiedBy": 5526,
      "Label": 5527,
      "Manifest": 5528,
      "margin": 5529,
      "dify": 5530,
      "Reservation": 5531,
      "Ġmatches": 5532,
      "}\\": 5533,
      "uning": 5534,
      "Ġmgmt": 5535,
      "Workload": 5536,
      "void": 5537,
      "Go": 5538,
      "à¸´": 5539,
      "DataVersion": 5540,
      "Ġincluding": 5541,
      "PipelineClient": 5542,
      "rt": 5543,
      "Ġupgrade": 5544,
      "summarize": 5545,
      "Ġedge": 5546,
      "atched": 5547,
      "Ġlarge": 5548,
      "ÐµÐ½ÑĮ": 5549,
      "Dns": 5550,
      "'].": 5551,
      "ĠArrange": 5552,
      "\"/": 5553,
      "Ġusers": 5554,
      "Ġdynamic": 5555,
      "lert": 5556,
      "ĠML": 5557,
      "Ġhand": 5558,
      "translation": 5559,
      "lastModifiedByType": 5560,
      "hidden": 5561,
      "disc": 5562,
      "install": 5563,
      "Ap": 5564,
      "codon": 5565,
      "Ġcontents": 5566,
      "}$\"": 5567,
      "æĹ¥": 5568,
      "FP": 5569,
      "Ġprotected": 5570,
      "Ġpayment": 5571,
      "{{": 5572,
      "perature": 5573,
      "Ġcalls": 5574,
      "Ġrefresh": 5575,
      ".')": 5576,
      "Ġnumbers": 5577,
      "DA": 5578,
      "Pending": 5579,
      "norm": 5580,
      "Rai": 5581,
      "munication": 5582,
      "apr": 5583,
      "Ġwrit": 5584,
      "ListViewType": 5585,
      "Ġkubernetes": 5586,
      "standard": 5587,
      "__,": 5588,
      "plugin": 5589,
      "Ġsecondary": 5590,
      "integer": 5591,
      "Ġman": 5592,
      "Ġhel": 5593,
      "Ġpad": 5594,
      "acc": 5595,
      "scan": 5596,
      "channel": 5597,
      "['$": 5598,
      "Ġobtain": 5599,
      "192": 5600,
      "Ġrules": 5601,
      "Limit": 5602,
      "ampler": 5603,
      "BO": 5604,
      "math": 5605,
      "Ġ----------": 5606,
      "Ġalgorithm": 5607,
      "dapt": 5608,
      "Detection": 5609,
      "Shared": 5610,
      "Featureset": 5611,
      "Ġdays": 5612,
      "RS": 5613,
      "release": 5614,
      "Ġbo": 5615,
      "RG": 5616,
      "iling": 5617,
      "coming": 5618,
      "Extended": 5619,
      "UTC": 5620,
      "We": 5621,
      "]):": 5622,
      "Ġreset": 5623,
      "Ġ[]))": 5624,
      "precated": 5625,
      "Sap": 5626,
      "Sas": 5627,
      "populate": 5628,
      "common": 5629,
      "ĠConnection": 5630,
      "Span": 5631,
      "tz": 5632,
      "67": 5633,
      "Space": 5634,
      "Ġ[],": 5635,
      "####": 5636,
      "Level": 5637,
      "PER": 5638,
      "yml": 5639,
      "help": 5640,
      "alert": 5641,
      "^^": 5642,
      "pdf": 5643,
      "cols": 5644,
      "Ġrequested": 5645,
      "ram": 5646,
      "dist": 5647,
      "datastore": 5648,
      "Dataset": 5649,
      "Ġ'\\": 5650,
      "Ġhub": 5651,
      "Ġanother": 5652,
      "Ġsignature": 5653,
      "safe": 5654,
      "Ġcell": 5655,
      "ĠProject": 5656,
      "GE": 5657,
      "KEN": 5658,
      "pothesis": 5659,
      "Bu": 5660,
      "ections": 5661,
      "åĪ": 5662,
      "Ġoc": 5663,
      "Ġconnections": 5664,
      "Ġscores": 5665,
      "0001": 5666,
      "Ġobs": 5667,
      "unicode": 5668,
      "ĠSave": 5669,
      "Contain": 5670,
      "SH": 5671,
      "Ġsampling": 5672,
      "ĠOnly": 5673,
      "onnect": 5674,
      "ines": 5675,
      "ĠRest": 5676,
      "andom": 5677,
      "Ġweewx": 5678,
      "resolve": 5679,
      "Ġdebug": 5680,
      "Ġattestation": 5681,
      "plane": 5682,
      "branch": 5683,
      "datam": 5684,
      "Ġvia": 5685,
      "seql": 5686,
      "filesystem": 5687,
      "NotFoundError": 5688,
      "clusterName": 5689,
      "Color": 5690,
      "ĠDes": 5691,
      "pkg": 5692,
      "ContainerService": 5693,
      "39": 5694,
      "Ġremain": 5695,
      "race": 5696,
      "idea": 5697,
      "BBject": 5698,
      "Edge": 5699,
      "cro": 5700,
      "coordinates": 5701,
      "tod": 5702,
      "ĠLO": 5703,
      "limits": 5704,
      "Ġflux": 5705,
      "CP": 5706,
      "det": 5707,
      "Ġio": 5708,
      "Ġthrough": 5709,
      "Ġexpect": 5710,
      "invoice": 5711,
      "Dep": 5712,
      "UM": 5713,
      "bit": 5714,
      "TypeError": 5715,
      "builtin": 5716,
      "learning": 5717,
      "ĠIndic": 5718,
      "ĠKeyError": 5719,
      "Blocklist": 5720,
      "></": 5721,
      "Ġ11": 5722,
      "terprise": 5723,
      "Ġkeep": 5724,
      "esh": 5725,
      "ĠAlign": 5726,
      "Ġconversation": 5727,
      "uting": 5728,
      "Ġoff": 5729,
      "selected": 5730,
      "Ġexpires": 5731,
      "moji": 5732,
      "bin": 5733,
      "serialization": 5734,
      "Ġsection": 5735,
      "Proxy": 5736,
      "gative": 5737,
      "redis": 5738,
      "Ġretrieve": 5739,
      "Ġtake": 5740,
      "win": 5741,
      "endswith": 5742,
      "licit": 5743,
      "rectangular": 5744,
      "2015": 5745,
      "stripe": 5746,
      "Ġbare": 5747,
      "Thread": 5748,
      "free": 5749,
      "Ġbus": 5750,
      "addr": 5751,
      "cb": 5752,
      "andid": 5753,
      "seek": 5754,
      "chat": 5755,
      "Ġep": 5756,
      ":`~": 5757,
      "celerator": 5758,
      "Stack": 5759,
      "Ġapplied": 5760,
      "========": 5761,
      "Ġalign": 5762,
      "realms": 5763,
      "çļ": 5764,
      "Ġ_________": 5765,
      "Ġang": 5766,
      "overn": 5767,
      "Ġchain": 5768,
      "sources": 5769,
      "riday": 5770,
      "sired": 5771,
      "Argument": 5772,
      "uplicate": 5773,
      "Hybrid": 5774,
      "Ùħ": 5775,
      "strument": 5776,
      "(\".": 5777,
      "Ġreservation": 5778,
      "ModelVersion": 5779,
      "expr": 5780,
      "CheckNameAvailability": 5781,
      "month": 5782,
      "ssh": 5783,
      "ĠMet": 5784,
      "Ġgroups": 5785,
      "Ġroute": 5786,
      "traffic": 5787,
      "çļĦ": 5788,
      "ged": 5789,
      "Ġtri": 5790,
      "ership": 5791,
      "Ġclassification": 5792,
      "Ġfetcher": 5793,
      "stit": 5794,
      "CL": 5795,
      "Directory": 5796,
      "agents": 5797,
      "binary": 5798,
      "Ġbuilder": 5799,
      "defaults": 5800,
      "GGER": 5801,
      "à¤": 5802,
      "linked": 5803,
      "\"}]": 5804,
      "aturization": 5805,
      "amma": 5806,
      "Ġcodon": 5807,
      "ĠDataset": 5808,
      "mk": 5809,
      "rename": 5810,
      "Ġ14": 5811,
      "Endpoints": 5812,
      "Ġfeatures": 5813,
      "Billing": 5814,
      "Ġflag": 5815,
      "BatchEndpoint": 5816,
      "MIN": 5817,
      "Ġ\"<": 5818,
      "Ġflow": 5819,
      "pact": 5820,
      "cred": 5821,
      "two": 5822,
      "uxConfiguration": 5823,
      "UNT": 5824,
      "ĠOBBject": 5825,
      "Ġmatching": 5826,
      "ĠNotImplement": 5827,
      "Ġconverted": 5828,
      "Monitoring": 5829,
      "Range": 5830,
      "Download": 5831,
      "Ġprincipal": 5832,
      "servicefabric": 5833,
      "uer": 5834,
      "conversation": 5835,
      "selector": 5836,
      "suffix": 5837,
      "Face": 5838,
      "epoch": 5839,
      "ality": 5840,
      "Ġids": 5841,
      "Ġnote": 5842,
      "appcontainers": 5843,
      "PropertiesV": 5844,
      "Engine": 5845,
      "ember": 5846,
      "ĠRuntimeError": 5847,
      "Ġavoid": 5848,
      "grid": 5849,
      "ĠPlease": 5850,
      "outside": 5851,
      "structions": 5852,
      "Ġowner": 5853,
      "JSONEncoder": 5854,
      "><": 5855,
      "IP": 5856,
      "Ġip": 5857,
      "workload": 5858,
      "NE": 5859,
      "term": 5860,
      "Ver": 5861,
      "]['": 5862,
      "ÃŃ": 5863,
      "hing": 5864,
      "verter": 5865,
      "Ġreceive": 5866,
      "Max": 5867,
      "Mongo": 5868,
      "vs": 5869,
      "Connector": 5870,
      "abet": 5871,
      "Ġclasses": 5872,
      "light": 5873,
      "Ġkernel": 5874,
      "tegers": 5875,
      "Ġpadding": 5876,
      "hooks": 5877,
      "Ġvar": 5878,
      "machines": 5879,
      "quity": 5880,
      "83": 5881,
      "dele": 5882,
      "compare": 5883,
      "Cor": 5884,
      "à¶": 5885,
      "question": 5886,
      "FILE": 5887,
      "PATCH": 5888,
      "'}": 5889,
      "OUT": 5890,
      "\")))": 5891,
      "matrix": 5892,
      "ResourceName": 5893,
      "Ġdir": 5894,
      "Ġneeds": 5895,
      "enticate": 5896,
      "PRE": 5897,
      "nan": 5898,
      "ressed": 5899,
      "upport": 5900,
      "ĠOS": 5901,
      "submit": 5902,
      "lers": 5903,
      "oken": 5904,
      "licable": 5905,
      "Ġ17": 5906,
      "ĠVault": 5907,
      "discovery": 5908,
      "Ġattempt": 5909,
      "radius": 5910,
      "Ġstreaming": 5911,
      "Artifact": 5912,
      "Ter": 5913,
      "lang": 5914,
      "operator": 5915,
      "Ġstrings": 5916,
      "Ġsyn": 5917,
      "objects": 5918,
      "yyy": 5919,
      "Ġterm": 5920,
      "PRI": 5921,
      "Sdk": 5922,
      "Permission": 5923,
      "Ġoffer": 5924,
      "ĠMessage": 5925,
      "contents": 5926,
      "solution": 5927,
      "lections": 5928,
      "Ġencrypted": 5929,
      "Ġnoqa": 5930,
      "AST": 5931,
      "blocks": 5932,
      "iot": 5933,
      "Ġdist": 5934,
      "ĠOperationClass": 5935,
      "Ġunderlying": 5936,
      "mutability": 5937,
      "CG": 5938,
      "seen": 5939,
      "Ġfunctions": 5940,
      "Ġround": 5941,
      "Ġrelationship": 5942,
      "Ġscopes": 5943,
      "VALUE": 5944,
      "69": 5945,
      "Rece": 5946,
      "curacy": 5947,
      "Ġrobot": 5948,
      "Ġinstall": 5949,
      "ĠShare": 5950,
      "onday": 5951,
      "Ġdec": 5952,
      "ases": 5953,
      "scheme": 5954,
      "thing": 5955,
      "generator": 5956,
      "OnlineEndpoint": 5957,
      "escape": 5958,
      "Tags": 5959,
      "party": 5960,
      "Ġcorrespon": 5961,
      "certificates": 5962,
      "mutable": 5963,
      "aries": 5964,
      "selection": 5965,
      "Ġmargin": 5966,
      "(\"%": 5967,
      "izers": 5968,
      "loader": 5969,
      "oso": 5970,
      "gt": 5971,
      "ĠSE": 5972,
      "Ġans": 5973,
      "hole": 5974,
      "hex": 5975,
      "ulk": 5976,
      "ociation": 5977,
      "ĠDev": 5978,
      "Ġfailure": 5979,
      "cdn": 5980,
      "cost": 5981,
      "Language": 5982,
      "hell": 5983,
      "impl": 5984,
      "Ġword": 5985,
      "applications": 5986,
      "lap": 5987,
      "Missing": 5988,
      "oauth": 5989,
      "Ġign": 5990,
      "Ġmonth": 5991,
      "mapper": 5992,
      "artphone": 5993,
      "quantizer": 5994,
      "trials": 5995,
      "Ġ64": 5996,
      "ĠCertificate": 5997,
      "assign": 5998,
      "configurations": 5999,
      "TP": 6000,
      "Ġsecrets": 6001,
      "Credentials": 6002,
      "clusive": 6003,
      "Ġconcurrent": 6004,
      "Collector": 6005,
      "Ġsuffix": 6006,
      "cosmosdb": 6007,
      "SdkJSONEncoder": 6008,
      "LS": 6009,
      "uu": 6010,
      "Ã©": 6011,
      "Review": 6012,
      "scribe": 6013,
      "ĠSecurity": 6014,
      "recoveryservicesbackup": 6015,
      "Ġwrapped": 6016,
      "ĠIndicates": 6017,
      "à·": 6018,
      "Ġsp": 6019,
      "123456": 6020,
      "verbosity": 6021,
      "containerregistry": 6022,
      "?:": 6023,
      "recipe": 6024,
      "DataContainer": 6025,
      "REG": 6026,
      "ServiceBus": 6027,
      "Ġ'\"": 6028,
      "mean": 6029,
      "contains": 6030,
      "visual": 6031,
      "clause": 6032,
      "ĠTable": 6033,
      "twins": 6034,
      "button": 6035,
      "dp": 6036,
      "Ġlinks": 6037,
      "ĠAI": 6038,
      "Ġpossible": 6039,
      ")])": 6040,
      "Ġrepr": 6041,
      "apis": 6042,
      "icated": 6043,
      "spans": 6044,
      "iso": 6045,
      "Int": 6046,
      "storeEntity": 6047,
      "à¹Ģ": 6048,
      "}')": 6049,
      "Ġcursor": 6050,
      "-]*[": 6051,
      "Ġverbo": 6052,
      "TrackedResourceArmPaginatedResult": 6053,
      "Ġpin": 6054,
      "Ġred": 6055,
      "Named": 6056,
      "ish": 6057,
      "ulated": 6058,
      "agnostics": 6059,
      "--------------------------------": 6060,
      "Ġexternal": 6061,
      "cursor": 6062,
      "Hello": 6063,
      "Ġexceptions": 6064,
      "Cal": 6065,
      "ÐĶ": 6066,
      "Ġopt": 6067,
      "Ġfalse": 6068,
      "Solution": 6069,
      "([[": 6070,
      "DataVersionBase": 6071,
      "Ġquality": 6072,
      "edicated": 6073,
      "rank": 6074,
      "fixed": 6075,
      "48": 6076,
      "ĠReg": 6077,
      "Ġcurrently": 6078,
      "Ġ\"\"\")": 6079,
      "ASS": 6080,
      "itable": 6081,
      "ĠAll": 6082,
      "getattr": 6083,
      "Ġtraffic": 6084,
      "(__": 6085,
      "stdout": 6086,
      "ula": 6087,
      "à¸²à¸": 6088,
      "47": 6089,
      "Ġsb": 6090,
      "Ġloaded": 6091,
      "Ġmobile": 6092,
      "writing": 6093,
      "Ġqualified": 6094,
      "Ñı": 6095,
      "ventory": 6096,
      "Ġrunner": 6097,
      "executor": 6098,
      "unknown": 6099,
      "All": 6100,
      "}{": 6101,
      "astype": 6102,
      "Ġplatform": 6103,
      "Ġla": 6104,
      "assertNot": 6105,
      "reader": 6106,
      "Comple": 6107,
      "Ġappro": 6108,
      "backend": 6109,
      "Ġdisc": 6110,
      "'{": 6111,
      "()]": 6112,
      "Ġnamed": 6113,
      ":%": 6114,
      "Ġcv": 6115,
      "2000": 6116,
      "tters": 6117,
      "ModelContainer": 6118,
      "Ġretrieved": 6119,
      "restart": 6120,
      "ĠTarget": 6121,
      "Ġlatest": 6122,
      "imports": 6123,
      "reservation": 6124,
      "ĠContinuation": 6125,
      "MS": 6126,
      "}):": 6127,
      "Ġjoin": 6128,
      "()[": 6129,
      "__.__": 6130,
      "Ġyyyy": 6131,
      "Ġstatistics": 6132,
      "TOKEN": 6133,
      "SOUR": 6134,
      "Ġour": 6135,
      "risk": 6136,
      "maps": 6137,
      "Ġhistory": 6138,
      "calendar": 6139,
      "super": 6140,
      "Ġnullable": 6141,
      "ber": 6142,
      "exclude": 6143,
      "ĠValidation": 6144,
      "enium": 6145,
      "achines": 6146,
      "Core": 6147,
      "Summary": 6148,
      "inner": 6149,
      "enrollment": 6150,
      "ComponentContainer": 6151,
      "master": 6152,
      "Kind": 6153,
      "Ġthese": 6154,
      "codes": 6155,
      "ĠStart": 6156,
      "Ġblobs": 6157,
      "ï¼Į": 6158,
      "Ġetc": 6159,
      "AUTH": 6160,
      ")],": 6161,
      "resourceName": 6162,
      "\")[": 6163,
      "ynapse": 6164,
      "adb": 6165,
      "ĠRedis": 6166,
      "Ġlogs": 6167,
      "postgres": 6168,
      "Snapshot": 6169,
      "ike": 6170,
      "EnvironmentContainer": 6171,
      "Ġmatrix": 6172,
      "queries": 6173,
      "Ġbelongs": 6174,
      "Ġcrop": 6175,
      "Ġinv": 6176,
      "unks": 6177,
      "dog": 6178,
      "Annot": 6179,
      "AND": 6180,
      "frequency": 6181,
      "sampling": 6182,
      "als": 6183,
      "team": 6184,
      "estation": 6185,
      "tic": 6186,
      "Notebook": 6187,
      "Ġtranslation": 6188,
      "à¹Ģà¸": 6189,
      "Ġscan": 6190,
      "Ġbasic": 6191,
      "Rest": 6192,
      "hold": 6193,
      "extended": 6194,
      "ĠMonday": 6195,
      "comput": 6196,
      "ĠIndex": 6197,
      "CodeContainer": 6198,
      "']:": 6199,
      "grant": 6200,
      "Ġbot": 6201,
      "ĠSample": 6202,
      "Ġpriority": 6203,
      "dsl": 6204,
      "Ġannotation": 6205,
      "urls": 6206,
      "Ġfmt": 6207,
      "Ġwere": 6208,
      "lastic": 6209,
      "Ġarchive": 6210,
      "ATT": 6211,
      "weights": 6212,
      "istration": 6213,
      "Ġcorrectly": 6214,
      "lius": 6215,
      "Ġsweep": 6216,
      "acer": 6217,
      "Groups": 6218,
      "Ġbenefit": 6219,
      "Ġparallel": 6220,
      "Ġhybrid": 6221,
      "onym": 6222,
      "specification": 6223,
      "cr": 6224,
      "ĠPart": 6225,
      "gies": 6226,
      "Unknown": 6227,
      "åĲ": 6228,
      "ĠMonitor": 6229,
      "ĠCommand": 6230,
      "Ð¸Ð": 6231,
      "Ġsw": 6232,
      "Registration": 6233,
      "ariant": 6234,
      "Ġzone": 6235,
      "Alert": 6236,
      "Ġtier": 6237,
      "Ġhidden": 6238,
      "factory": 6239,
      "Detections": 6240,
      "QU": 6241,
      "vt": 6242,
      "nelius": 6243,
      "/.": 6244,
      "Note": 6245,
      "lat": 6246,
      "worker": 6247,
      "ĠExec": 6248,
      "builder": 6249,
      "1000": 6250,
      "Queue": 6251,
      "retention": 6252,
      "ales": 6253,
      "Form": 6254,
      "LOB": 6255,
      "XT": 6256,
      "erred": 6257,
      "Ġspe": 6258,
      "Ġsummary": 6259,
      "VICE": 6260,
      "ĠResponse": 6261,
      "DocType": 6262,
      "ĠDatabase": 6263,
      "QUE": 6264,
      "xw": 6265,
      "Ġsensor": 6266,
      "render": 6267,
      "sweep": 6268,
      "âķ": 6269,
      "Ġloss": 6270,
      "Ġcountry": 6271,
      "Ġprice": 6272,
      "\\\"": 6273,
      "Ġ[(": 6274,
      "ĠMy": 6275,
      "Ġextended": 6276,
      "general": 6277,
      "Ġattach": 6278,
      "encoder": 6279,
      "ialog": 6280,
      "avings": 6281,
      "401": 6282,
      "seed": 6283,
      "Ġasc": 6284,
      "plates": 6285,
      "jpg": 6286,
      "devices": 6287,
      "Metrics": 6288,
      "Usage": 6289,
      "ĠTags": 6290,
      "Ġeq": 6291,
      "insight": 6292,
      "attestation": 6293,
      "___": 6294,
      "adapt": 6295,
      "Sample": 6296,
      "logic": 6297,
      "veloper": 6298,
      "Ġcore": 6299,
      "ane": 6300,
      "umes": 6301,
      "ĠMo": 6302,
      "Call": 6303,
      "Ġgot": 6304,
      "Ġjnp": 6305,
      "ltered": 6306,
      "Ġraised": 6307,
      "Ġdirectly": 6308,
      "Ġpartial": 6309,
      "Header": 6310,
      "Line": 6311,
      "pers": 6312,
      "revision": 6313,
      "ories": 6314,
      "Ġfact": 6315,
      "predict": 6316,
      "otpkey": 6317,
      "ä»": 6318,
      "alt": 6319,
      "Ġexcluded": 6320,
      "digest": 6321,
      "Email": 6322,
      "mid": 6323,
      "Ñĥ": 6324,
      "Ġtasks": 6325,
      "subid": 6326,
      "transfer": 6327,
      "veness": 6328,
      "stores": 6329,
      "desk": 6330,
      "ĠUnique": 6331,
      "Ġ\"./": 6332,
      "ĠCognitive": 6333,
      "ĠString": 6334,
      "agnose": 6335,
      "hsp": 6336,
      "Ġnt": 6337,
      "Provisioning": 6338,
      ")]+": 6339,
      "Ġstill": 6340,
      "portal": 6341,
      "balance": 6342,
      "privacyidea": 6343,
      "igital": 6344,
      "summaries": 6345,
      "high": 6346,
      "rfc": 6347,
      "Ġperiod": 6348,
      "ITION": 6349,
      "ULL": 6350,
      "KS": 6351,
      "vided": 6352,
      "tip": 6353,
      "-----": 6354,
      "aintenance": 6355,
      "Ġindicating": 6356,
      "ĠSaveFixture": 6357,
      "MENT": 6358,
      "failover": 6359,
      "Ġarchived": 6360,
      "named": 6361,
      "shutdown": 6362,
      "ControlConfiguration": 6363,
      "\\(\\": 6364,
      "Ġamount": 6365,
      "packages": 6366,
      "terest": 6367,
      "Ag": 6368,
      "Volume": 6369,
      "responses": 6370,
      "Ġsegment": 6371,
      "elemetry": 6372,
      "Ġleast": 6373,
      "ied": 6374,
      "jection": 6375,
      "cel": 6376,
      "ĠSAS": 6377,
      "Ġcontact": 6378,
      ").\"\"\"": 6379,
      "author": 6380,
      "LOGGER": 6381,
      "ĠOperations": 6382,
      "secondary": 6383,
      "Ġpair": 6384,
      "OpenAI": 6385,
      "Za": 6386,
      "aut": 6387,
      "Ġvalidated": 6388,
      "flush": 6389,
      "going": 6390,
      "Ġmeans": 6391,
      "pringboot": 6392,
      "LIN": 6393,
      "wins": 6394,
      "pout": 6395,
      "Disabled": 6396,
      "git": 6397,
      "rot": 6398,
      "Repository": 6399,
      "Protected": 6400,
      "Ġcached": 6401,
      "Route": 6402,
      "sa": 6403,
      "probe": 6404,
      "disabled": 6405,
      "plicated": 6406,
      "Ġignored": 6407,
      "igitalT": 6408,
      "Option": 6409,
      "Ġinsert": 6410,
      "Password": 6411,
      "matched": 6412,
      "2012": 6413,
      "istant": 6414,
      "ĠDet": 6415,
      "Ġdisabled": 6416,
      "ĠĠĠĠĠĠĠĠĠĠĠĠĠĠĠĠĠĠĠĠĠĠĠĠĠĠĠĠĠĠĠĠĠĠ": 6417,
      "oked": 6418,
      "Lock": 6419,
      "2222": 6420,
      "Containers": 6421,
      "plevel": 6422,
      "epcopy": 6423,
      "cedure": 6424,
      "Ġtyping": 6425,
      "ars": 6426,
      "Ġ32": 6427,
      "ashboard": 6428,
      "Evaluation": 6429,
      "Day": 6430,
      "storageservices": 6431,
      "ĠInvalid": 6432,
      "ierarch": 6433,
      "runs": 6434,
      "ĠBlock": 6435,
      "Throughput": 6436,
      "encoded": 6437,
      "And": 6438,
      "ategies": 6439,
      "Ġdesc": 6440,
      "Decode": 6441,
      "Automation": 6442,
      "false": 6443,
      "Ġma": 6444,
      "Ġdescrib": 6445,
      "ower": 6446,
      "=%": 6447,
      "stamp": 6448,
      "Ġrequire": 6449,
      "59": 6450,
      ":\")": 6451,
      "ĠIoT": 6452,
      "commendation": 6453,
      "ĠMax": 6454,
      "Ġgrid": 6455,
      "networkcloud": 6456,
      "ĠRes": 6457,
      "Ġdistribution": 6458,
      "units": 6459,
      "weet": 6460,
      "cornelius": 6461,
      "Quotas": 6462,
      "TIME": 6463,
      "\\(\\)]+": 6464,
      "Ġinstances": 6465,
      "iterator": 6466,
      "Upgrade": 6467,
      "akes": 6468,
      "Ġbutton": 6469,
      "Ġsequences": 6470,
      "à¸£à¸": 6471,
      "PARAM": 6472,
      "ĠOrder": 6473,
      "ked": 6474,
      "stage": 6475,
      "amax": 6476,
      "tein": 6477,
      "specific": 6478,
      "TrackedResource": 6479,
      "\\._\\(\\)]+": 6480,
      "Ops": 6481,
      "tl": 6482,
      "ResourceId": 6483,
      "Ġsubdiv": 6484,
      "Raw": 6485,
      "WORKFLOW": 6486,
      ",)": 6487,
      "sig": 6488,
      "vance": 6489,
      "Ġpick": 6490,
      "ometry": 6491,
      "appplatform": 6492,
      "visioned": 6493,
      "Ġ../": 6494,
      "FIX": 6495,
      "ĠPrivateEndpointConnection": 6496,
      "Ġidentify": 6497,
      "aad": 6498,
      "firm": 6499,
      "cessary": 6500,
      "Conv": 6501,
      "ĠGET": 6502,
      "ropout": 6503,
      "Ġdesired": 6504,
      "ildcard": 6505,
      "BUG": 6506,
      "road": 6507,
      "rase": 6508,
      "datap": 6509,
      "ĠStandard": 6510,
      "pagesize": 6511,
      "<>": 6512,
      "Cle": 6513,
      "RT": 6514,
      "]).": 6515,
      "ĠĠĠĠĠĠĠĠĠĠĠĠĠĠĠĠĠĠĠĠĠĠĠĠĠĠĠĠĠĠĠĠĠĠĠĠĠĠ": 6516,
      "onitored": 6517,
      "Ġpoints": 6518,
      "âĢĭ": 6519,
      "hours": 6520,
      "Ġbar": 6521,
      "ĠAd": 6522,
      "ills": 6523,
      "Ġweights": 6524,
      "limiter": 6525,
      "Ġindices": 6526,
      "Ġshort": 6527,
      "inger": 6528,
      "Ġkusto": 6529,
      "aaaaaaaa": 6530,
      "Choice": 6531,
      "flex": 6532,
      "charact": 6533,
      "You": 6534,
      "eno": 6535,
      "raffic": 6536,
      "protocol": 6537,
      "initialize": 6538,
      "recognize": 6539,
      "unded": 6540,
      "BasePolling": 6541,
      "LOC": 6542,
      "hint": 6543,
      "Ġjoint": 6544,
      "enu": 6545,
      "ErrorException": 6546,
      "irst": 6547,
      "Ġliteralinclude": 6548,
      "lamic": 6549,
      "ÙĪ": 6550,
      "ĠET": 6551,
      "revit": 6552,
      "Ġplease": 6553,
      "Ġdele": 6554,
      "ĠSK": 6555,
      "Ġprotocol": 6556,
      "Ġwhat": 6557,
      "ĠEval": 6558,
      "Rules": 6559,
      "rectangularWall": 6560,
      "$\"),": 6561,
      "Training": 6562,
      "Ġsheet": 6563,
      "COUNT": 6564,
      "svg": 6565,
      "erts": 6566,
      "polygon": 6567,
      "AuthKeys": 6568,
      "Ġsupports": 6569,
      "destination": 6570,
      "áĥ": 6571,
      "Ġinvoice": 6572,
      "Ġautomatic": 6573,
      "Ġstatic": 6574,
      "dependencies": 6575,
      "oke": 6576,
      "Ġbehavior": 6577,
      "Ġ18": 6578,
      "ĠImport": 6579,
      "58": 6580,
      "Ġcatalog": 6581,
      "short": 6582,
      "Ġincludes": 6583,
      "Portal": 6584,
      "ause": 6585,
      "renew": 6586,
      "Ġrad": 6587,
      "transl": 6588,
      "Segment": 6589,
      "Serverless": 6590,
      "ĠCreates": 6591,
      "æĸ": 6592,
      "Ġ'_": 6593,
      "Ġloop": 6594,
      "mitive": 6595,
      "Ġbuf": 6596,
      "cookie": 6597,
      "Ġmanifest": 6598,
      "istor": 6599,
      "cording": 6600,
      "Oracle": 6601,
      "Single": 6602,
      "icon": 6603,
      "Ġstride": 6604,
      "distance": 6605,
      "ComputeResource": 6606,
      "Active": 6607,
      "Ġmost": 6608,
      "Timeout": 6609,
      "cm": 6610,
      "ratio": 6611,
      "Ġwell": 6612,
      "layers": 6613,
      ":\\": 6614,
      "dialect": 6615,
      "odbus": 6616,
      "PRIV": 6617,
      "ĠSupported": 6618,
      "ĠSett": 6619,
      "AIL": 6620,
      "2014": 6621,
      "ĠDescription": 6622,
      "ÐĶÐµÐ½ÑĮ": 6623,
      "SET": 6624,
      "Ġevery": 6625,
      "ĠSql": 6626,
      "DEFAULT": 6627,
      "Observed": 6628,
      "âĢĭâĢĭ": 6629,
      "Tuple": 6630,
      "padding": 6631,
      "ĠĠĠĠĠĠĠĠĠĠĠĠĠĠĠĠĠĠĠĠĠĠĠĠĠĠĠĠĠĠĠĠĠĠĠĠĠĠĠĠĠĠĠ": 6632,
      "DATE": 6633,
      "Ġsepar": 6634,
      "Parser": 6635,
      "Change": 6636,
      "requires": 6637,
      "asy": 6638,
      "interface": 6639,
      "ivers": 6640,
      "bad": 6641,
      "pred": 6642,
      "è¯": 6643,
      "toplevel": 6644,
      "Ġappend": 6645,
      "Ġflatten": 6646,
      "Analysis": 6647,
      "({'": 6648,
      "ĠWorkflow": 6649,
      "Ġangle": 6650,
      "\"]),": 6651,
      "Ġ13": 6652,
      "hotp": 6653,
      "inf": 6654,
      "ĠNode": 6655,
      "fastq": 6656,
      "Fi": 6657,
      "Ġwebhook": 6658,
      "uamqp": 6659,
      "}},": 6660,
      "å¤": 6661,
      "Ġcmd": 6662,
      "Ġdedicated": 6663,
      "should": 6664,
      "Ġpaths": 6665,
      "MatchConditions": 6666,
      "capabilities": 6667,
      "identities": 6668,
      "methods": 6669,
      "ĠBio": 6670,
      "Ġbackground": 6671,
      "duction": 6672,
      "Ġpermissions": 6673,
      "ĠColumn": 6674,
      "sizes": 6675,
      "redu": 6676,
      "matches": 6677,
      "plain": 6678,
      "BBBBBBBB": 6679,
      "Ġplot": 6680,
      "Ġscenario": 6681,
      "PendingUpload": 6682,
      "writer": 6683,
      "tel": 6684,
      "ĠAzureKeyCredential": 6685,
      "Ġexplicit": 6686,
      "idue": 6687,
      "StorageAccount": 6688,
      "Ġprag": 6689,
      "poly": 6690,
      "Ġorderby": 6691,
      "ĠOpenAI": 6692,
      "ĠSettings": 6693,
      "echo": 6694,
      "ety": 6695,
      "apim": 6696,
      "Ġtoo": 6697,
      "aux": 6698,
      "nested": 6699,
      "zon": 6700,
      "Ġfailover": 6701,
      "ĠsetUp": 6702,
      "fieldtype": 6703,
      "JobInput": 6704,
      "Ġsymbols": 6705,
      "ĠSets": 6706,
      "Ġconnector": 6707,
      "istorical": 6708,
      "RP": 6709,
      "asc": 6710,
      "statistics": 6711,
      "Ġprev": 6712,
      "Ġchannel": 6713,
      "Ġjobs": 6714,
      "restype": 6715,
      "BASE": 6716,
      "randn": 6717,
      "Ġglob": 6718,
      "Ġcomput": 6719,
      "translate": 6720,
      "udience": 6721,
      "EXT": 6722,
      "62": 6723,
      "CRE": 6724,
      "Gen": 6725,
      "ĠDNS": 6726,
      "Ġworks": 6727,
      "iguous": 6728,
      "Ġrelated": 6729,
      "Conversation": 6730,
      "Ġcorresponding": 6731,
      "lists": 6732,
      "mostEqual": 6733,
      "claims": 6734,
      "AlmostEqual": 6735,
      "Ġotp": 6736,
      "offer": 6737,
      "ĠField": 6738,
      "assertAlmostEqual": 6739,
      "Ġcompi": 6740,
      "ARY": 6741,
      "cached": 6742,
      "corded": 6743,
      "wright": 6744,
      "blobs": 6745,
      "Execute": 6746,
      "Ġquantization": 6747,
      "Ġmarker": 6748,
      "ND": 6749,
      "Ġdistance": 6750,
      "timeouts": 6751,
      "TEXT": 6752,
      "53": 6753,
      "hi": 6754,
      "Ġ?": 6755,
      "strict": 6756,
      "Ġreplica": 6757,
      "Ġfails": 6758,
      "ĠVer": 6759,
      "ĠNet": 6760,
      "servations": 6761,
      "Ġcalculate": 6762,
      "FeaturestoreEntity": 6763,
      "rer": 6764,
      "ĠForm": 6765,
      "Ġletters": 6766,
      "deploymentName": 6767,
      "lr": 6768,
      "ligi": 6769,
      "throw": 6770,
      "tical": 6771,
      "Ġlocations": 6772,
      "tran": 6773,
      "Ġ:,": 6774,
      "Ġmixin": 6775,
      "=\"/": 6776,
      "Ġchart": 6777,
      "Ġpercent": 6778,
      "Linked": 6779,
      "hosts": 6780,
      "AMP": 6781,
      "Ġadjust": 6782,
      "Ġagainst": 6783,
      "ggest": 6784,
      "dicate": 6785,
      "partial": 6786,
      "redefined": 6787,
      "Ref": 6788,
      "=\"$": 6789,
      "Ġuses": 6790,
      "FORM": 6791,
      "ĠNotImplementedError": 6792,
      "Ġreverse": 6793,
      "ssl": 6794,
      "irth": 6795,
      "AccountName": 6796,
      "âķĲ": 6797,
      "PRIVATE": 6798,
      "Stop": 6799,
      "æľ": 6800,
      "Ġkw": 6801,
      "Ġnested": 6802,
      "counting": 6803,
      "chestr": 6804,
      "regener": 6805,
      "Generic": 6806,
      "=\",": 6807,
      "bet": 6808,
      "Ġaudit": 6809,
      "ĠUS": 6810,
      "ĠWHERE": 6811,
      "ligib": 6812,
      "Ġcompare": 6813,
      "indent": 6814,
      "closed": 6815,
      "VirtualNetwork": 6816,
      "Outbound": 6817,
      "AV": 6818,
      "wik": 6819,
      "alf": 6820,
      "openapi": 6821,
      "Controller": 6822,
      "Ġattached": 6823,
      "NonObserved": 6824,
      "igitalTwins": 6825,
      "Spark": 6826,
      "replica": 6827,
      "Ġrecipe": 6828,
      "()}": 6829,
      "azurestack": 6830,
      "Ġcapture": 6831,
      "distributions": 6832,
      "croft": 6833,
      "regenerate": 6834,
      "elif": 6835,
      "asure": 6836,
      "ĠRead": 6837,
      "Ġgenerator": 6838,
      "Entities": 6839,
      "Could": 6840,
      "Lease": 6841,
      "./": 6842,
      "Last": 6843,
      "azureml": 6844,
      "Contact": 6845,
      "found": 6846,
      "rev": 6847,
      "Ġwrap": 6848,
      "timezone": 6849,
      "gged": 6850,
      "backoff": 6851,
      "Ġtracked": 6852,
      "Red": 6853,
      "bn": 6854,
      "Ġexit": 6855,
      "obs": 6856,
      "APP": 6857,
      "PartitionKey": 6858,
      "49": 6859,
      "Ġmid": 6860,
      "ĠObject": 6861,
      "ĠPer": 6862,
      "ĠUsed": 6863,
      "mlin": 6864,
      "push": 6865,
      "Ø©": 6866,
      "Ġicon": 6867,
      "avg": 6868,
      "IND": 6869,
      "cycle": 6870,
      "Ġmongo": 6871,
      "Multi": 6872,
      "Site": 6873,
      "la": 6874,
      "oracle": 6875,
      "Recogn": 6876,
      "foot": 6877,
      "Ġregistered": 6878,
      "bsocket": 6879,
      "riterion": 6880,
      "Bundle": 6881,
      "UB": 6882,
      "bd": 6883,
      "border": 6884,
      "Ġutil": 6885,
      "isters": 6886,
      "frames": 6887,
      "probability": 6888,
      "Ġstage": 6889,
      "Ġdid": 6890,
      "\"^[^": 6891,
      "DATA": 6892,
      "skus": 6893,
      "ĠĠĠĠĠĠĠĠĠĠĠĠĠĠĠĠĠĠĠĠĠĠĠĠĠĠĠĠĠĠĠĠĠĠĠĠ": 6894,
      "labs": 6895,
      "recv": 6896,
      "2010": 6897,
      "dimensions": 6898,
      "Ġ))": 6899,
      "__)": 6900,
      "---": 6901,
      "many": 6902,
      "todo": 6903,
      "Ġ:]": 6904,
      "Ġaccording": 6905,
      "cognitive": 6906,
      "512": 6907,
      "sole": 6908,
      "Ġtx": 6909,
      "shift": 6910,
      "Sequence": 6911,
      "embedding": 6912,
      "del": 6913,
      "ĠAss": 6914,
      "Ġdialect": 6915,
      "Ġprop": 6916,
      "bucket": 6917,
      "dle": 6918,
      "gpt": 6919,
      "âĶ": 6920,
      "Ġentries": 6921,
      "ali": 6922,
      "resses": 6923,
      "\",\"": 6924,
      "ites": 6925,
      "afety": 6926,
      "sorted": 6927,
      "Ġchoices": 6928,
      "NN": 6929,
      "wrapped": 6930,
      "Ġscal": 6931,
      "128": 6932,
      "Ġassum": 6933,
      "ĠSequence": 6934,
      "flatten": 6935,
      "moni": 6936,
      "Ġsuitable": 6937,
      "cross": 6938,
      "masks": 6939,
      "Ġvisit": 6940,
      "Ġdump": 6941,
      "Ġ400": 6942,
      "Ġguid": 6943,
      "ĠMLClient": 6944,
      "tf": 6945,
      "Ġbench": 6946,
      "204": 6947,
      "precation": 6948,
      "aily": 6949,
      "Mount": 6950,
      "embeddings": 6951,
      "utonomousDatabase": 6952,
      "Ġpragma": 6953,
      "ii": 6954,
      "lid": 6955,
      "lias": 6956,
      "asci": 6957,
      "ayer": 6958,
      "Ġsubprocess": 6959,
      "Ġranges": 6960,
      "integers": 6961,
      "ĠPri": 6962,
      "Logger": 6963,
      "Ġve": 6964,
      "Ġreview": 6965,
      "Ġbit": 6966,
      "Ġeps": 6967,
      "ĠSub": 6968,
      "contoso": 6969,
      "dummy": 6970,
      "finder": 6971,
      "utcnow": 6972,
      "Initialize": 6973,
      "Ġts": 6974,
      "perm": 6975,
      "readall": 6976,
      "ATCH": 6977,
      "[:-": 6978,
      "Ġ''')": 6979,
      "AAT": 6980,
      "Off": 6981,
      "benefit": 6982,
      "argparser": 6983,
      "mazon": 6984,
      "ĠNe": 6985,
      "Ġsubject": 6986,
      "analysis": 6987,
      "?:[": 6988,
      "Ġnecessary": 6989,
      "locator": 6990,
      "ĠIdentifier": 6991,
      "Ġboxes": 6992,
      "ĠAnalyze": 6993,
      "RawResponse": 6994,
      "VI": 6995,
      "lass": 6996,
      "Ġ###": 6997,
      "ĠSimple": 6998,
      "ardware": 6999,
      "dsc": 7000,
      "Ġmany": 7001,
      "__(*": 7002,
      "istic": 7003,
      "ServiceResource": 7004,
      "authoring": 7005,
      "Ġmean": 7006,
      "elingJob": 7007,
      "(\",": 7008,
      "Wrapper": 7009,
      "migrate": 7010,
      "tokeninfo": 7011,
      "Ġminutes": 7012,
      "Price": 7013,
      "ascii": 7014,
      "æĺ": 7015,
      "inline": 7016,
      "ĠVirtualMachine": 7017,
      "clip": 7018,
      "starts": 7019,
      "Ġrot": 7020,
      "shapes": 7021,
      "moniker": 7022,
      "Over": 7023,
      "Ġssh": 7024,
      "olumes": 7025,
      "air": 7026,
      "Identities": 7027,
      "ĠDateTime": 7028,
      "âķĲâķĲ": 7029,
      "Ġeventhub": 7030,
      "Python": 7031,
      "east": 7032,
      "west": 7033,
      "seg": 7034,
      "cally": 7035,
      "voke": 7036,
      "FabricErrorException": 7037,
      "alpha": 7038,
      "ME": 7039,
      "infer": 7040,
      "seline": 7041,
      "Ġspark": 7042,
      "ticket": 7043,
      "aming": 7044,
      "enum": 7045,
      "resume": 7046,
      "uey": 7047,
      "ĠHub": 7048,
      "checkpoint": 7049,
      "Transaction": 7050,
      "Ã¤": 7051,
      "Ġknown": 7052,
      "Ġdepends": 7053,
      "precision": 7054,
      "ÙĬØ¯": 7055,
      "93": 7056,
      "sn": 7057,
      "Ġrec": 7058,
      "Ġdetection": 7059,
      "AsyncTokenCredential": 7060,
      "icket": 7061,
      "Ġquantizer": 7062,
      "Number": 7063,
      "Pay": 7064,
      "bove": 7065,
      "Indexer": 7066,
      "AssignedIdentities": 7067,
      "traceback": 7068,
      "/\"": 7069,
      "Redis": 7070,
      "fused": 7071,
      "personal": 7072,
      "Ġbest": 7073,
      "Ġcomment": 7074,
      "ĠRa": 7075,
      "notebook": 7076,
      "RESOUR": 7077,
      "(\"--": 7078,
      "clone": 7079,
      "Entry": 7080,
      "'\\": 7081,
      "Actions": 7082,
      "hes": 7083,
      "construct": 7084,
      "ĠRP": 7085,
      "doctypes": 7086,
      "AttributeError": 7087,
      "Ġbuilt": 7088,
      "Dim": 7089,
      "Pub": 7090,
      "home": 7091,
      "áŁ": 7092,
      "Ġedges": 7093,
      "Ġequal": 7094,
      "Ġonnx": 7095,
      "retries": 7096,
      "warnings": 7097,
      "ProtectedItem": 7098,
      "gem": 7099,
      "Ġsubnet": 7100,
      "projectName": 7101,
      "Spec": 7102,
      "ah": 7103,
      "Ġuntil": 7104,
      "Ġconstraints": 7105,
      "placement": 7106,
      ">\"": 7107,
      "aur": 7108,
      "Ġvisible": 7109,
      "polog": 7110,
      "Ġcomb": 7111,
      "Ġspecification": 7112,
      "Parse": 7113,
      "Ġestimat": 7114,
      "apimService": 7115,
      "'\"": 7116,
      "Ġput": 7117,
      "ĠRegistry": 7118,
      "pping": 7119,
      "completed": 7120,
      "Body": 7121,
      "eq": 7122,
      "disks": 7123,
      "ĠDictionary": 7124,
      "Ġonce": 7125,
      "2013": 7126,
      "jmx": 7127,
      "uch": 7128,
      "Ġrecorded": 7129,
      "Ġoper": 7130,
      "Ġdelta": 7131,
      "Ġfd": 7132,
      "appconfiguration": 7133,
      "RequestOptions": 7134,
      "regions": 7135,
      "Aml": 7136,
      "lineno": 7137,
      "ĠDep": 7138,
      "Ġversionadded": 7139,
      "Ġcheckpoint": 7140,
      "ldap": 7141,
      "Ġrepresenting": 7142,
      "pand": 7143,
      "Ġformatted": 7144,
      "168": 7145,
      "Ġopenbb": 7146,
      "Dia": 7147,
      "Discovery": 7148,
      "Ġanalytics": 7149,
      "Minimal": 7150,
      "WorkspaceConnectionPropertiesV": 7151,
      "Ġtransformation": 7152,
      "privateEndpointConnection": 7153,
      "Ġtermin": 7154,
      "EC": 7155,
      "cfg": 7156,
      "hb": 7157,
      "Ġsimple": 7158,
      "Ġfore": 7159,
      "ĠLocation": 7160,
      "Ġconflict": 7161,
      "ĠBack": 7162,
      "seat": 7163,
      "Ġfrozen": 7164,
      "Ġ'-": 7165,
      "clade": 7166,
      "dependence": 7167,
      "*\",": 7168,
      "bundle": 7169,
      "wn": 7170,
      "stderr": 7171,
      "resample": 7172,
      "Ġspecifies": 7173,
      "Ġsteps": 7174,
      "41": 7175,
      "oint": 7176,
      "Ġabove": 7177,
      "correlation": 7178,
      "ACE": 7179,
      "Cost": 7180,
      "Ġnni": 7181,
      "ĠShared": 7182,
      "Ġdecorator": 7183,
      "Origin": 7184,
      "TML": 7185,
      "Ġfuture": 7186,
      "monition": 7187,
      "ĠSchedule": 7188,
      "Insight": 7189,
      "seqlen": 7190,
      "Ġlicense": 7191,
      "Ġcancel": 7192,
      "Ġ-=": 7193,
      "Ġenum": 7194,
      "openai": 7195,
      "evaluator": 7196,
      "Ġscheduled": 7197,
      "Fetch": 7198,
      "Video": 7199,
      "Ġindent": 7200,
      "Connected": 7201,
      "ĠAdditional": 7202,
      "Ġamax": 7203,
      "bare": 7204,
      "bits": 7205,
      "eo": 7206,
      "pat": 7207,
      "Ġpand": 7208,
      "processed": 7209,
      "Cannot": 7210,
      "verity": 7211,
      "this": 7212,
      "ĠMapping": 7213,
      ").\",": 7214,
      "ĠNO": 7215,
      "Ġadmonition": 7216,
      "Algorithm": 7217,
      "Ġelem": 7218,
      "History": 7219,
      "kernel": 7220,
      "VirtualMachineScaleSet": 7221,
      "Amazon": 7222,
      "Ġissu": 7223,
      "Ġdecoded": 7224,
      "Ġdeprecated": 7225,
      "ĠNOT": 7226,
      "scheduler": 7227,
      "||||": 7228,
      "CAC": 7229,
      "press": 7230,
      "sid": 7231,
      "Revit": 7232,
      "ilon": 7233,
      "checkout": 7234,
      "changes": 7235,
      "ĠApiManagementClient": 7236,
      "cd": 7237,
      "Unit": 7238,
      "sembly": 7239,
      "WS": 7240,
      "aring": 7241,
      "Ġfriendly": 7242,
      "2011": 7243,
      "Iteration": 7244,
      "correct": 7245,
      "Norm": 7246,
      "Ġserialized": 7247,
      "Ġchecks": 7248,
      "Ġendpoints": 7249,
      "divid": 7250,
      "Ġwatcher": 7251,
      "raft": 7252,
      "Ġthose": 7253,
      "generic": 7254,
      "priority": 7255,
      "ĠXML": 7256,
      "adog": 7257,
      "Ġeven": 7258,
      "runbook": 7259,
      "Linear": 7260,
      "pology": 7261,
      "backward": 7262,
      "DeploymentResource": 7263,
      "issuer": 7264,
      "IVE": 7265,
      "Tier": 7266,
      "Ġtax": 7267,
      "ĠCur": 7268,
      "ĠRecovery": 7269,
      "Ġdue": 7270,
      "ĠAgent": 7271,
      "Ġintent": 7272,
      "information": 7273,
      "Ġdiagnostic": 7274,
      "ĠConnect": 7275,
      "AML": 7276,
      "principalId": 7277,
      "purge": 7278,
      "Windows": 7279,
      "?$\",": 7280,
      "frag": 7281,
      "ĠHe": 7282,
      "Ġ128": 7283,
      "Convert": 7284,
      "iterable": 7285,
      "Ġboolean": 7286,
      "teresting": 7287,
      "Ġmight": 7288,
      "Ġdecode": 7289,
      "Ġ({": 7290,
      "Ġmethods": 7291,
      "helper": 7292,
      "Ġindicates": 7293,
      "ÃŃa": 7294,
      ")(": 7295,
      "Ġfrequency": 7296,
      "={},": 7297,
      "ertia": 7298,
      "IDE": 7299,
      "scripts": 7300,
      "Platform": 7301,
      "expiration": 7302,
      "Ġabsolute": 7303,
      "è¿": 7304,
      "psutil": 7305,
      "vaults": 7306,
      "assertNoNonObserved": 7307,
      "Ġverbose": 7308,
      "uff": 7309,
      "diff": 7310,
      "ĠNow": 7311,
      "relative": 7312,
      "XXXXXXXX": 7313,
      "ĠExecution": 7314,
      "Vector": 7315,
      "tol": 7316,
      "Ġhead": 7317,
      "Ġ'*": 7318,
      "ĠFriday": 7319,
      "icense": 7320,
      "ĠProvider": 7321,
      "Ġclean": 7322,
      "ĠAllow": 7323,
      "Person": 7324,
      "reverse": 7325,
      "Ġ(-": 7326,
      "JobBase": 7327,
      "marker": 7328,
      "vars": 7329,
      "Specification": 7330,
      "Copy": 7331,
      "hot": 7332,
      "holder": 7333,
      "Ġpers": 7334,
      "Ġmasks": 7335,
      "ĠView": 7336,
      "functions": 7337,
      "Ġlimits": 7338,
      "CB": 7339,
      "Like": 7340,
      "fr": 7341,
      "ison": 7342,
      "9999": 7343,
      "Ġplay": 7344,
      "tty": 7345,
      "issues": 7346,
      "444444444444": 7347,
      "SD": 7348,
      "sus": 7349,
      "zones": 7350,
      "enqueue": 7351,
      "ĠDefaultAzureCredential": 7352,
      "ĠRE": 7353,
      "ird": 7354,
      "commended": 7355,
      "Ġseries": 7356,
      "repo": 7357,
      "arly": 7358,
      "edit": 7359,
      "Ġ199": 7360,
      "rypt": 7361,
      "Ġalong": 7362,
      "Ġstarting": 7363,
      "Metal": 7364,
      "devcenter": 7365,
      "cognitiveservices": 7366,
      "/\",": 7367,
      "92": 7368,
      "IST": 7369,
      "increment": 7370,
      "Ġcenter": 7371,
      "pools": 7372,
      "references": 7373,
      "displayName": 7374,
      "ExecutionProvider": 7375,
      ">\\": 7376,
      "shares": 7377,
      "repeat": 7378,
      "Ġ})": 7379,
      "(\"_": 7380,
      "Ġmapper": 7381,
      "ighb": 7382,
      "ffffffff": 7383,
      "percentage": 7384,
      "FluxConfiguration": 7385,
      "await": 7386,
      "scores": 7387,
      "olation": 7388,
      "healthy": 7389,
      "Ġperformed": 7390,
      "lem": 7391,
      "Ġdecl": 7392,
      "Ġ((": 7393,
      "unday": 7394,
      "Ġbottom": 7395,
      "Ids": 7396,
      "Prop": 7397,
      "ĠGateway": 7398,
      "``,": 7399,
      "AccessPolicy": 7400,
      "ĠØ§ÙĦØ": 7401,
      "pot": 7402,
      "Ġws": 7403,
      "without": 7404,
      "Ġborder": 7405,
      "Remove": 7406,
      "])?$\",": 7407,
      "Ġrunbook": 7408,
      "environments": 7409,
      "receipt": 7410,
      "irthday": 7411,
      ")\")": 7412,
      "lies": 7413,
      "Ġseen": 7414,
      "ĠĠĠĠĠĠĠĠĠĠĠĠĠĠĠĠĠĠĠĠĠĠĠĠĠĠĠĠĠĠĠĠĠĠĠĠĠ": 7415,
      "issue": 7416,
      "Ne": 7417,
      "OL": 7418,
      "constraints": 7419,
      "Ġhapp": 7420,
      "cesses": 7421,
      "HEAD": 7422,
      "}[": 7423,
      "datab": 7424,
      "ssue": 7425,
      "Ġhref": 7426,
      "azy": 7427,
      "WorkloadNetwork": 7428,
      "Flow": 7429,
      "GR": 7430,
      "Ġparsing": 7431,
      "databases": 7432,
      "answer": 7433,
      "google": 7434,
      "Ġrand": 7435,
      "MinimalTrackedResource": 7436,
      "wal": 7437,
      "consumer": 7438,
      "ĠFront": 7439,
      "Ġfixed": 7440,
      "ĠPost": 7441,
      "Ġpkg": 7442,
      "ading": 7443,
      "Ġway": 7444,
      "Experiment": 7445,
      "udent": 7446,
      "Ġleg": 7447,
      "abricks": 7448,
      "Ġprocessing": 7449,
      "successful": 7450,
      "Ġtrained": 7451,
      "Callable": 7452,
      "Success": 7453,
      "ERS": 7454,
      "provided": 7455,
      "ĠSite": 7456,
      "Ġhold": 7457,
      "aching": 7458,
      "DS": 7459,
      "Graph": 7460,
      "Uns": 7461,
      "reat": 7462,
      "Ġsafe": 7463,
      "assignments": 7464,
      "Ġgen": 7465,
      "Generate": 7466,
      "Select": 7467,
      "Ø¹ÙĬØ¯": 7468,
      "MinimalTrackedResourceWith": 7469,
      "1123": 7470,
      "HH": 7471,
      "wind": 7472,
      "Ġlang": 7473,
      "Ġfinished": 7474,
      "beros": 7475,
      "OP": 7476,
      "robot": 7477,
      "filer": 7478,
      "Ġtools": 7479,
      "\"[": 7480,
      "pared": 7481,
      "Ġxy": 7482,
      "attn": 7483,
      "Ġdefinitions": 7484,
      "Ġhostname": 7485,
      "\")),": 7486,
      "Extract": 7487,
      "127": 7488,
      "Ġanalysis": 7489,
      "NA": 7490,
      "OUR": 7491,
      "cision": 7492,
      "ANT": 7493,
      "8601": 7494,
      "********": 7495,
      "hci": 7496,
      "tls": 7497,
      "Ġelastic": 7498,
      "PartialMinimalTrackedResourceWith": 7499,
      "Current": 7500,
      "Support": 7501,
      "reen": 7502,
      "enetwork": 7503,
      "Ġdirection": 7504,
      "porter": 7505,
      "assertNoNonObservedHoliday": 7506,
      "signed": 7507,
      "Ġinside": 7508,
      "constraint": 7509,
      "curring": 7510,
      "anguages": 7511,
      "OrganizationResource": 7512,
      "Ġconfigured": 7513,
      "ligibility": 7514,
      "Audit": 7515,
      "Guest": 7516,
      "Length": 7517,
      "hour": 7518,
      "ĠTr": 7519,
      "Ġdts": 7520,
      "Models": 7521,
      "tensors": 7522,
      "versations": 7523,
      "pubsub": 7524,
      "GalleryImage": 7525,
      "fmt": 7526,
      "ģà¸": 7527,
      "ĠBox": 7528,
      "ĠRole": 7529,
      "Christmas": 7530,
      "Ġfamily": 7531,
      "bounding": 7532,
      "Ġglobally": 7533,
      "GAA": 7534,
      "Please": 7535,
      "ica": 7536,
      "avor": 7537,
      "schemas": 7538,
      "]+$\"": 7539,
      "Ġanswer": 7540,
      "DER": 7541,
      "Fa": 7542,
      "åĽ": 7543,
      "Ġfoot": 7544,
      "Ġprovid": 7545,
      "Ġexported": 7546,
      "Ġhyper": 7547,
      "striction": 7548,
      "etimes": 7549,
      "unct": 7550,
      "ĠFilter": 7551,
      "elf": 7552,
      "avs": 7553,
      "à¹Į": 7554,
      "recognition": 7555,
      "ĠAutoML": 7556,
      "andidates": 7557,
      ":{": 7558,
      "Git": 7559,
      "Succeeded": 7560,
      "recipient": 7561,
      "arded": 7562,
      "Ġ:=": 7563,
      "ingPolicy": 7564,
      "Ġlater": 7565,
      "Ġprocessed": 7566,
      "ListResponse": 7567,
      "Ġobb": 7568,
      "DefinitionVersion": 7569,
      "Ġmerge": 7570,
      "PubSub": 7571,
      "Use": 7572,
      "Ġtransl": 7573,
      "Ġtransformed": 7574,
      "compile": 7575,
      "Ġcho": 7576,
      "ĠRemove": 7577,
      "ava": 7578,
      "Param": 7579,
      "hdinsight": 7580,
      "ĠVerify": 7581,
      "OS": 7582,
      "ething": 7583,
      "continue": 7584,
      "Ġresolve": 7585,
      "Ġbounding": 7586,
      "Ġimplementation": 7587,
      "ĠMaximum": 7588,
      "Ġblocks": 7589,
      "Ġcover": 7590,
      "compatible": 7591,
      "Bearer": 7592,
      "relay": 7593,
      "sep": 7594,
      "asets": 7595,
      "omething": 7596,
      "axes": 7597,
      "azurestackhci": 7598,
      "coord": 7599,
      "()):": 7600,
      "notes": 7601,
      "registered": 7602,
      "ĠArguments": 7603,
      "FT": 7604,
      "mult": 7605,
      "æķ": 7606,
      "polis": 7607,
      "asca": 7608,
      "orders": 7609,
      "ContainerRegistry": 7610,
      "](?:[": 7611,
      "à»": 7612,
      "userAssignedIdentities": 7613,
      "Ġresol": 7614,
      "AccessToken": 7615,
      "qb": 7616,
      "ename": 7617,
      "Ġeffect": 7618,
      "activation": 7619,
      "Series": 7620,
      "ĠĠĠĠĠĠĠĠĠĠĠĠĠĠĠĠĠĠĠĠĠĠĠĠĠĠĠĠĠĠĠĠĠĠĠĠĠĠĠĠĠĠĠĠ": 7621,
      "ĠWindow": 7622,
      "Ġassign": 7623,
      "ĠAnalytics": 7624,
      ".*": 7625,
      "Ġund": 7626,
      "Ġ2022": 7627,
      "Ġmocker": 7628,
      "rieves": 7629,
      "\\._\\(\\)]+$\"": 7630,
      "AU": 7631,
      "gran": 7632,
      "atibility": 7633,
      "Ġ\"#": 7634,
      "mobile": 7635,
      "Ġsink": 7636,
      "ĠLab": 7637,
      "Values": 7638,
      "Ġinstalled": 7639,
      "Region": 7640,
      "Ġclause": 7641,
      "Score": 7642,
      "ĠPl": 7643,
      "VmCluster": 7644,
      ")*": 7645,
      "Mask": 7646,
      "Ġ\"[": 7647,
      "uter": 7648,
      "lookup": 7649,
      "Arch": 7650,
      "quantize": 7651,
      "enefits": 7652,
      "AuthorizationRule": 7653,
      "semble": 7654,
      "cut": 7655,
      "Ġmd": 7656,
      "tector": 7657,
      "listen": 7658,
      "Ġhyph": 7659,
      "Localized": 7660,
      "Ġreplicated": 7661,
      "Ġdefine": 7662,
      "ROUP": 7663,
      "ĠĠĠĠĠĠĠĠĠĠĠĠĠĠĠĠĠĠĠĠĠĠĠĠĠĠĠĠĠĠĠĠĠĠĠĠĠĠĠĠĠĠĠĠĠĠĠ": 7664,
      "conditional": 7665,
      "classifier": 7666,
      "attrs": 7667,
      "Ġiterable": 7668,
      "retch": 7669,
      "rowwise": 7670,
      "Ġlayers": 7671,
      "Ġrepresentation": 7672,
      "Ġsentence": 7673,
      "Ġdeployments": 7674,
      "epochs": 7675,
      "Ġissuer": 7676,
      "Backend": 7677,
      "tim": 7678,
      "tok": 7679,
      "Ġdimension": 7680,
      ">\",": 7681,
      "PL": 7682,
      "ionError": 7683,
      "decor": 7684,
      "ĠCategory": 7685,
      "Ġexact": 7686,
      "ĠModbus": 7687,
      "assertLocalized": 7688,
      "à¸ĩ": 7689,
      "Interface": 7690,
      "ĠMedia": 7691,
      "ĠConfig": 7692,
      "pretrained": 7693,
      "authority": 7694,
      "gorithms": 7695,
      "ĠUnmatched": 7696,
      "CURR": 7697,
      "LINE": 7698,
      "ĠSKU": 7699,
      "oid": 7700,
      "Ġsen": 7701,
      "oboflow": 7702,
      "come": 7703,
      "FeaturesetVersion": 7704,
      "assertLocalizedHolidays": 7705,
      "52": 7706,
      "rets": 7707,
      "pick": 7708,
      "Ġupon": 7709,
      "bounds": 7710,
      "ĠOperationStatus": 7711,
      "74": 7712,
      "Embed": 7713,
      "Principal": 7714,
      "unch": 7715,
      "Ġwho": 7716,
      "Example": 7717,
      "ĠNamespace": 7718,
      "Ġallows": 7719,
      "Ġsignal": 7720,
      "Ġbinding": 7721,
      "ierarchy": 7722,
      "51": 7723,
      "Del": 7724,
      "KK": 7725,
      "OK": 7726,
      "Rp": 7727,
      "manage": 7728,
      "åħ": 7729,
      "Ġpid": 7730,
      "\")]": 7731,
      "Ġdrop": 7732,
      "ggers": 7733,
      "ĠNetApp": 7734,
      "sepolis": 7735,
      "encrypted": 7736,
      "Ġdetected": 7737,
      "Ġlogin": 7738,
      "Ġsetattr": 7739,
      "psl": 7740,
      "Align": 7741,
      "Ġadapt": 7742,
      "dictionary": 7743,
      "direction": 7744,
      "acquire": 7745,
      "MODEL": 7746,
      "MX": 7747,
      "Tree": 7748,
      "duplicate": 7749,
      "Ġlook": 7750,
      "Ġenrollment": 7751,
      "Ġstates": 7752,
      "idget": 7753,
      "-------------": 7754,
      "Array": 7755,
      "68": 7756,
      "DF": 7757,
      "publish": 7758,
      "}`": 7759,
      "unused": 7760,
      "ĠTem": 7761,
      "attached": 7762,
      "Ġimmediate": 7763,
      "lished": 7764,
      "review": 7765,
      "resolution": 7766,
      "isinstance": 7767,
      "Ġregex": 7768,
      "nni": 7769,
      "Builder": 7770,
      "RaiBlocklist": 7771,
      "OM": 7772,
      "fk": 7773,
      "iona": 7774,
      "Ġnorm": 7775,
      "Ġfake": 7776,
      "ĠShould": 7777,
      "Ġrevit": 7778,
      "ĠMaps": 7779,
      "ĠInit": 7780,
      "Ġtempfile": 7781,
      "ĠSchema": 7782,
      "DÃŃa": 7783,
      "Handle": 7784,
      "}_": 7785,
      "ĠSystem": 7786,
      "Ġnumer": 7787,
      "webhook": 7788,
      "Greater": 7789,
      "hn": 7790,
      "çĶ": 7791,
      "Ġaml": 7792,
      "ĠISO": 7793,
      "Ġoptimizer": 7794,
      "sharding": 7795,
      "Step": 7796,
      "bed": 7797,
      "INFO": 7798,
      "àºĻ": 7799,
      "CustomDomain": 7800,
      "hsm": 7801,
      "inct": 7802,
      "Ġbal": 7803,
      "SqlPool": 7804,
      "Ġdimensions": 7805,
      "handlers": 7806,
      "ftime": 7807,
      "Ġcard": 7808,
      "pymodule": 7809,
      "networks": 7810,
      "Processing": 7811,
      "datamigration": 7812,
      "Sy": 7813,
      "Te": 7814,
      "Ġ\":": 7815,
      "entype": 7816,
      "area": 7817,
      "ĠĠĠĠĠĠĠĠĠĠĠĠĠĠĠĠĠĠĠĠĠĠĠĠĠĠĠĠĠĠĠĠĠĠĠĠĠĠĠĠ": 7818,
      "Ġgeneration": 7819,
      "ensemb": 7820,
      "purview": 7821,
      "Networks": 7822,
      "Ġremaining": 7823,
      "ÙĨ": 7824,
      "anchor": 7825,
      "mob": 7826,
      "trailing": 7827,
      "ThroughputSettings": 7828,
      "ensemble": 7829,
      "cf": 7830,
      "dr": 7831,
      "gap": 7832,
      "Ġdet": 7833,
      "perform": 7834,
      "ResponseDto": 7835,
      "Ġmount": 7836,
      "ĠVideo": 7837,
      "EndpointResource": 7838,
      "catalog": 7839,
      "Ġspecial": 7840,
      "Ġhello": 7841,
      "Alias": 7842,
      "huey": 7843,
      "Ġfig": 7844,
      "Ġ40": 7845,
      "à¸¡": 7846,
      "Ġsuccessful": 7847,
      "ĠBackup": 7848,
      "fference": 7849,
      "|([": 7850,
      "attempt": 7851,
      "parison": 7852,
      "Regenerate": 7853,
      "compliance": 7854,
      "Ġautomatically": 7855,
      "Live": 7856,
      "docker": 7857,
      "ough": 7858,
      "xacro": 7859,
      "Ġredirect": 7860,
      "excluded": 7861,
      "verification": 7862,
      "Items": 7863,
      "Ġ\"${{": 7864,
      "databox": 7865,
      "61": 7866,
      "EL": 7867,
      "Scaling": 7868,
      "aging": 7869,
      "Ġtok": 7870,
      "ĠPrivateLink": 7871,
      "ming": 7872,
      "scriptor": 7873,
      "'re": 7874,
      "IS": 7875,
      "idle": 7876,
      "Ġslice": 7877,
      "Ġthroughput": 7878,
      "Ġsubscriptions": 7879,
      "RESP": 7880,
      "dimension": 7881,
      "masked": 7882,
      "Ġrank": 7883,
      "Ġinspect": 7884,
      "dl": 7885,
      "arc": 7886,
      "strftime": 7887,
      "ĠAnnot": 7888,
      "Ġappe": 7889,
      "ĠOpenBB": 7890,
      "ascade": 7891,
      "ĠZ": 7892,
      "):(": 7893,
      "/{}\".": 7894,
      "previous": 7895,
      "Ġconsole": 7896,
      "cells": 7897,
      "Glossary": 7898,
      "refs": 7899,
      "reshape": 7900,
      "ĠLOG": 7901,
      "Synapse": 7902,
      "big": 7903,
      "js": 7904,
      "¯Ģ": 7905,
      "Ġepoch": 7906,
      "sitions": 7907,
      "Ġrp": 7908,
      "coring": 7909,
      "ImageData": 7910,
      "stitution": 7911,
      "æĸĩ": 7912,
      "Ġassumed": 7913,
      "Page": 7914,
      "Ðº": 7915,
      "ç¯Ģ": 7916,
      "ĠAt": 7917,
      "accelerator": 7918,
      "Ġshrink": 7919,
      "reement": 7920,
      "Pools": 7921,
      "snapshots": 7922,
      "Ġanalyze": 7923,
      "ĠDEFAULT": 7924,
      "Dedicated": 7925,
      "San": 7926,
      "bon": 7927,
      "atter": 7928,
      "cob": 7929,
      "AccountId": 7930,
      "Threshold": 7931,
      "ĠComputeManagementClient": 7932,
      "IL": 7933,
      "Ġ\"'": 7934,
      "assets": 7935,
      "ĠExamples": 7936,
      "automl": 7937,
      "Dec": 7938,
      "PK": 7939,
      "ival": 7940,
      "rstrip": 7941,
      "itect": 7942,
      "lim": 7943,
      "Ġexecutor": 7944,
      "Ð½Ð°": 7945,
      "Ġbucket": 7946,
      "ga": 7947,
      "lane": 7948,
      "sq": 7949,
      "Ġperson": 7950,
      "ĠStop": 7951,
      "background": 7952,
      "Ġsha": 7953,
      "Ġ168": 7954,
      "desktop": 7955,
      "ponential": 7956,
      "ResourceProvider": 7957,
      "Available": 7958,
      "porary": 7959,
      "Ġaccident": 7960,
      "assertNotIn": 7961,
      "What": 7962,
      "ools": 7963,
      "xa": 7964,
      "interesting": 7965,
      "imeter": 7966,
      "eps": 7967,
      "partner": 7968,
      "âĢĻ": 7969,
      "iptoken": 7970,
      "Ġblue": 7971,
      ":.": 7972,
      "Ġnet": 7973,
      "ĠStep": 7974,
      "Ġoutbound": 7975,
      "Ġscheme": 7976,
      "Ġclosed": 7977,
      "ServerInstance": 7978,
      "organizations": 7979,
      "tectable": 7980,
      "OST": 7981,
      "unic": 7982,
      "Ġdelay": 7983,
      "ResourceNotFoundError": 7984,
      "ĠConvert": 7985,
      "Ġtracing": 7986,
      "Ġsuccessfully": 7987,
      "Ñħ": 7988,
      "Ġarch": 7989,
      "Ġrenew": 7990,
      "Ġemoji": 7991,
      "jecture": 7992,
      "Ġpymod": 7993,
      "areMetal": 7994,
      "tracing": 7995,
      "segmentation": 7996,
      "Names": 7997,
      "counters": 7998,
      "attention": 7999,
      "flu": 8000,
      "Delivery": 8001,
      "Chat": 8002,
      "Ġexamples": 8003,
      "ObjectDetection": 8004,
      "ĠSecret": 8005,
      "Feed": 8006,
      "rupt": 8007,
      "Fore": 8008,
      "OB": 8009,
      "Ġcy": 8010,
      "Ġsleep": 8011,
      "sb": 8012,
      "same": 8013,
      "peg": 8014,
      "Ġunicode": 8015,
      "Secrets": 8016,
      "Ġlayout": 8017,
      "ffered": 8018,
      "Ġaccidentally": 8019,
      "_)": 8020,
      "pad": 8021,
      "Ġta": 8022,
      "christmas": 8023,
      "ĠOne": 8024,
      "ĠBY": 8025,
      "started": 8026,
      "Ġgradient": 8027,
      "verbose": 8028,
      "Ġqueries": 8029,
      "Running": 8030,
      "BLOB": 8031,
      "ĠHoliday": 8032,
      "strategies": 8033,
      "upsert": 8034,
      "Ġ42": 8035,
      "ĠIDs": 8036,
      "SIGN": 8037,
      "Ġalphabet": 8038,
      "fasta": 8039,
      "Unsupported": 8040,
      ">|": 8041,
      "GIN": 8042,
      "Ġwarn": 8043,
      "Ġsimilar": 8044,
      "ĠCurrent": 8045,
      "Pattern": 8046,
      "gs": 8047,
      "Ġrefact": 8048,
      "Ġsubmit": 8049,
      "Policies": 8050,
      "FIG": 8051,
      "good": 8052,
      "ticular": 8053,
      "Dimensions": 8054,
      "aw": 8055,
      "ĠPUT": 8056,
      "Ġcommon": 8057,
      "IntegrationRuntime": 8058,
      "-------------|": 8059,
      "rou": 8060,
      "linux": 8061,
      "Ġrecogn": 8062,
      "exported": 8063,
      "Comp": 8064,
      "ESS": 8065,
      "Ġstats": 8066,
      "automations": 8067,
      "ContainersOperations": 8068,
      "oracledatabase": 8069,
      ",\"": 8070,
      "Ġssl": 8071,
      "shrink": 8072,
      "colors": 8073,
      "Detail": 8074,
      "Cognitive": 8075,
      "conflict": 8076,
      "12345678": 8077,
      "}',": 8078,
      "Ġcfg": 8079,
      "lec": 8080,
      "ascale": 8081,
      "AccessReview": 8082,
      "aggregation": 8083,
      "æķ°": 8084,
      "CURRENT": 8085,
      "Pol": 8086,
      "appro": 8087,
      "Ġdepth": 8088,
      "paque": 8089,
      "activ": 8090,
      "symbols": 8091,
      "PoolName": 8092,
      "LOCAL": 8093,
      "Pack": 8094,
      "Ġpd": 8095,
      "Ġrepo": 8096,
      "anumer": 8097,
      "heads": 8098,
      "Ġparticular": 8099,
      "Infrastructure": 8100,
      "CODE": 8101,
      "webdriver": 8102,
      "speed": 8103,
      "AY": 8104,
      "mem": 8105,
      "qresult": 8106,
      "Ġmm": 8107,
      "Ġyet": 8108,
      "Move": 8109,
      "scales": 8110,
      "vmware": 8111,
      "à¹Ī": 8112,
      "KeysResult": 8113,
      "chars": 8114,
      "detach": 8115,
      "ood": 8116,
      "Ġsig": 8117,
      "Relay": 8118,
      "vered": 8119,
      "Ġencode": 8120,
      "à¸Ń": 8121,
      "ITY": 8122,
      "Ġ80": 8123,
      "Attestation": 8124,
      "Permissions": 8125,
      "}],": 8126,
      "uner": 8127,
      "ĠREST": 8128,
      "week": 8129,
      "Ġauthenticate": 8130,
      "Ġconditions": 8131,
      "omy": 8132,
      "Ġnotebook": 8133,
      "acement": 8134,
      "databasename": 8135,
      "which": 8136,
      "Ġcompleted": 8137,
      "Appro": 8138,
      "sitivity": 8139,
      "Constants": 8140,
      "OperationListResult": 8141,
      "clean": 8142,
      "sequences": 8143,
      "blue": 8144,
      "utonomousdatabasename": 8145,
      "Cap": 8146,
      "CAA": 8147,
      "Op": 8148,
      "Ġ\"__": 8149,
      "Ġvoice": 8150,
      "Ġrv": 8151,
      "=[],": 8152,
      "quantization": 8153,
      "plicas": 8154,
      "Ġrepresents": 8155,
      "QUEST": 8156,
      "DR": 8157,
      "Ġ\")": 8158,
      "than": 8159,
      "timent": 8160,
      "ĠSync": 8161,
      "Ġlow": 8162,
      "corner": 8163,
      "CRY": 8164,
      "åıĸ": 8165,
      "Deploy": 8166,
      "Deleted": 8167,
      "Administrator": 8168,
      "Ġcommitment": 8169,
      "Sen": 8170,
      "care": 8171,
      "xim": 8172,
      "Ġpending": 8173,
      "acl": 8174,
      "ĠOmit": 8175,
      "(_(\"": 8176,
      "Ġretries": 8177,
      "evaluate": 8178,
      "Ġdigest": 8179,
      "ĠEventHub": 8180,
      "Ġclaims": 8181,
      "iliary": 8182,
      "chestrator": 8183,
      "NC": 8184,
      "\"]},": 8185,
      "ĠSk": 8186,
      "Ġenqueue": 8187,
      "Ġkv": 8188,
      "Ġtables": 8189,
      "ĠAuthorization": 8190,
      "Ġdecimal": 8191,
      "Verti": 8192,
      "ĠAAD": 8193,
      "anceled": 8194,
      "tesIO": 8195,
      "ĠNULL": 8196,
      "Ġupper": 8197,
      "Ġruns": 8198,
      "SqlDb": 8199,
      "casting": 8200,
      "unctools": 8201,
      "*#": 8202,
      "43": 8203,
      "600": 8204,
      "AX": 8205,
      "IF": 8206,
      "QP": 8207,
      "oriz": 8208,
      "strings": 8209,
      "Ġ',": 8210,
      "Ġdx": 8211,
      "ĠFP": 8212,
      "Diagnose": 8213,
      "completion": 8214,
      "456": 8215,
      "batches": 8216,
      "glossary": 8217,
      "ider": 8218,
      "ĠAKS": 8219,
      "vels": 8220,
      "Section": 8221,
      "ĠIdentity": 8222,
      "Ġdetermine": 8223,
      "DInsight": 8224,
      "css": 8225,
      "gid": 8226,
      "()).": 8227,
      "usted": 8228,
      "returned": 8229,
      "Holes": 8230,
      "Ġoverwriting": 8231,
      "Translation": 8232,
      "agger": 8233,
      "Ġradius": 8234,
      "Pur": 8235,
      "æĪ": 8236,
      "Ġmutable": 8237,
      "STE": 8238,
      "targets": 8239,
      "Ġlengths": 8240,
      "signal": 8241,
      "characters": 8242,
      ":])": 8243,
      "åĬ": 8244,
      "delivery": 8245,
      "Ġreply": 8246,
      "\"\"\",": 8247,
      "Ġfiltered": 8248,
      "PoolResource": 8249,
      "Attribute": 8250,
      "Allow": 8251,
      "Ġsolutions": 8252,
      "Ġ'*'": 8253,
      ":/": 8254,
      "station": 8255,
      "mixed": 8256,
      "dfs": 8257,
      "sym": 8258,
      "reduce": 8259,
      "Down": 8260,
      "Ġtz": 8261,
      "Ġwriter": 8262,
      "Ġstdout": 8263,
      "ĠPatch": 8264,
      "callable": 8265,
      "console": 8266,
      "Events": 8267,
      "Ġarticle": 8268,
      "itecture": 8269,
      "70": 8270,
      "land": 8271,
      "eder": 8272,
      "Ġfree": 8273,
      "emit": 8274,
      "Ġprecision": 8275,
      "RECO": 8276,
      "Ġframes": 8277,
      "VALID": 8278,
      "Bar": 8279,
      "Media": 8280,
      "sin": 8281,
      "selenium": 8282,
      "statuses": 8283,
      "Ġ300": 8284,
      "indexer": 8285,
      "JE": 8286,
      "cassandra": 8287,
      "Ġquot": 8288,
      "stor": 8289,
      "ResourceType": 8290,
      "Ġfilesystem": 8291,
      "multipart": 8292,
      "xxxx": 8293,
      "Ġcapability": 8294,
      "ja": 8295,
      "rouble": 8296,
      "power": 8297,
      "Ġda": 8298,
      "Simple": 8299,
      "blast": 8300,
      "eid": 8301,
      "std": 8302,
      "Ġbrowser": 8303,
      "Ġbelow": 8304,
      "attack": 8305,
      "Ġcreates": 8306,
      "assertIsInstance": 8307,
      "Ġrandstr": 8308,
      "mobil": 8309,
      "Catalog": 8310,
      "bank": 8311,
      "instrument": 8312,
      "Ġclick": 8313,
      "liz": 8314,
      "Ġrefer": 8315,
      "Ġproducer": 8316,
      "runc": 8317,
      "ĠLe": 8318,
      "plements": 8319,
      "....": 8320,
      "embers": 8321,
      "Ġgeo": 8322,
      ":\",": 8323,
      "resol": 8324,
      "Ġremediation": 8325,
      "Ġstrand": 8326,
      "Ġoauth": 8327,
      "ĠCal": 8328,
      "SERVICE": 8329,
      "Cleanup": 8330,
      "dividual": 8331,
      "UUID": 8332,
      "orable": 8333,
      "orient": 8334,
      "Ġ\"@": 8335,
      "Ġhour": 8336,
      "Ġuuid": 8337,
      "trt": 8338,
      "balanc": 8339,
      "ĠDoor": 8340,
      "Ġaccum": 8341,
      "dataplane": 8342,
      "oct": 8343,
      "à®": 8344,
      "Ġ'')": 8345,
      "logical": 8346,
      "TokenClass": 8347,
      "secure": 8348,
      "initialized": 8349,
      "åŃ": 8350,
      "amer": 8351,
      "Ġgrant": 8352,
      "Ġcommunication": 8353,
      "namespaces": 8354,
      "Ġtrt": 8355,
      "sessments": 8356,
      "àº²": 8357,
      "hybridnetwork": 8358,
      "MT": 8359,
      "URI": 8360,
      "Ġtran": 8361,
      "Ġba": 8362,
      "UserAssigned": 8363,
      "schedules": 8364,
      "OutboundRule": 8365,
      "79": 8366,
      "Find": 8367,
      "SY": 8368,
      "numbers": 8369,
      "deepcopy": 8370,
      "stract": 8371,
      "pound": 8372,
      "consum": 8373,
      "Forward": 8374,
      "Ġless": 8375,
      "Ġcalling": 8376,
      "communication": 8377,
      "BasicResourceArmPaginatedResult": 8378,
      "monitoring": 8379,
      "GCT": 8380,
      "article": 8381,
      "Ġinline": 8382,
      "outgoing": 8383,
      "templates": 8384,
      "servability": 8385,
      "ĠNotification": 8386,
      "Track": 8387,
      "lectual": 8388,
      "ÑģÑĤ": 8389,
      "Ġdummy": 8390,
      "ĠEvaluation": 8391,
      "tellectual": 8392,
      "ĠAnnotated": 8393,
      "UI": 8394,
      "Ġ])": 8395,
      "Ġinstructions": 8396,
      "Ġfoo": 8397,
      "netapp": 8398,
      "ĠDataFrame": 8399,
      "Attach": 8400,
      "SourceControlConfiguration": 8401,
      "ĠDetails": 8402,
      "LeaseClient": 8403,
      "(['": 8404,
      "oned": 8405,
      "separ": 8406,
      "Ġtd": 8407,
      "Ġopaque": 8408,
      "Ġbackward": 8409,
      "rases": 8410,
      "ĠMatch": 8411,
      "Ġfix": 8412,
      "Ġmaps": 8413,
      "Ġlogic": 8414,
      "Temporary": 8415,
      "MonitorResource": 8416,
      "Good": 8417,
      "Ġbusiness": 8418,
      ")\\": 8419,
      "+:": 8420,
      "GAT": 8421,
      "done": 8422,
      "lm": 8423,
      "wrong": 8424,
      "demo": 8425,
      "Ġtab": 8426,
      "Ġwrong": 8427,
      "Ġwildcard": 8428,
      "ONSE": 8429,
      "Ġjax": 8430,
      "Ġtensors": 8431,
      "ordinate": 8432,
      "Ġcontroller": 8433,
      "509": 8434,
      "Fail": 8435,
      "hic": 8436,
      "Ġmesh": 8437,
      "Ġproper": 8438,
      "ĠMigration": 8439,
      "ĠBuild": 8440,
      "Skill": 8441,
      "Ġboundary": 8442,
      "Bank": 8443,
      "]\",": 8444,
      "aval": 8445,
      "jor": 8446,
      "eds": 8447,
      "ĠPool": 8448,
      "LinkContract": 8449,
      "business": 8450,
      "rollback": 8451,
      "Ġalphanumer": 8452,
      "invitation": 8453,
      "msrest": 8454,
      "ĠĠĠĠĠĠĠĠĠĠĠĠĠĠĠĠĠĠĠĠĠĠĠĠĠĠĠĠĠĠĠĠĠĠĠĠĠĠĠĠĠĠĠĠĠĠ": 8455,
      "Ġagents": 8456,
      "Preview": 8457,
      "ValidateResult": 8458,
      "Ph": 8459,
      "click": 8460,
      "leet": 8461,
      "Ġbad": 8462,
      "ĠMake": 8463,
      "Subject": 8464,
      "'})": 8465,
      "Eid": 8466,
      "AzureKeyCredential": 8467,
      "locals": 8468,
      "VirtualInstance": 8469,
      "enarios": 8470,
      "Ġ''',": 8471,
      "tracker": 8472,
      "onnected": 8473,
      "overnance": 8474,
      "Ð¸Ð¹": 8475,
      "ana": 8476,
      "ĠmanagedClusters": 8477,
      "dependent": 8478,
      "ĠconnectedClusters": 8479,
      "accum": 8480,
      "ĠPartition": 8481,
      ".\\": 8482,
      "distributed": 8483,
      "ĠMark": 8484,
      "matching": 8485,
      "shoot": 8486,
      "Ġtemperature": 8487,
      "synchron": 8488,
      "Extensions": 8489,
      "Ġalpha": 8490,
      "lecule": 8491,
      "roubleshoot": 8492,
      "Parent": 8493,
      "Ġrecursive": 8494,
      "Ġspringboot": 8495,
      "à¸µ": 8496,
      "ENCRY": 8497,
      "Ġpolygon": 8498,
      "manual": 8499,
      "locale": 8500,
      "Ġmodules": 8501,
      "threads": 8502,
      "quential": 8503,
      "ĠBenefit": 8504,
      "Ġ256": 8505,
      "...\")": 8506,
      "Ġtimesouts": 8507,
      "<>?": 8508,
      "&+:": 8509,
      "dropout": 8510,
      "fault": 8511,
      "incoming": 8512,
      "Ġcategories": 8513,
      "Ġmut": 8514,
      "ĠCON": 8515,
      "using": 8516,
      "ynam": 8517,
      "transactions": 8518,
      "FFFF": 8519,
      "herit": 8520,
      "\"^[^*#": 8521,
      "&+:<>?": 8522,
      "\"^[^*#&+:<>?": 8523,
      "Foo": 8524,
      "NOT": 8525,
      "Send": 8526,
      "ttl": 8527,
      "aving": 8528,
      "dirname": 8529,
      "Args": 8530,
      "asyprint": 8531,
      "âĶĢ": 8532,
      "mobilenetwork": 8533,
      "120": 8534,
      "LEN": 8535,
      "License": 8536,
      "Pe": 8537,
      "gamma": 8538,
      "Ġcuda": 8539,
      "Ġacross": 8540,
      "generation": 8541,
      "profiles": 8542,
      "ĠSeqIO": 8543,
      "BL": 8544,
      "MET": 8545,
      "ech": 8546,
      "flo": 8547,
      "mes": 8548,
      "pdb": 8549,
      "elastic": 8550,
      "Ġ26": 8551,
      "ĠRule": 8552,
      "ConfigurationAssignment": 8553,
      "termination": 8554,
      "dx": 8555,
      "stretch": 8556,
      "assertGreater": 8557,
      "Enable": 8558,
      "Sets": 8559,
      "plicit": 8560,
      "ÑĢÐ°": 8561,
      "Callback": 8562,
      "Folder": 8563,
      "SL": 8564,
      "fb": 8565,
      "ÑĨ": 8566,
      "ina": 8567,
      "ServiceIdentity": 8568,
      "transpose": 8569,
      "Ġmeter": 8570,
      "DEBUG": 8571,
      "Ġaggregation": 8572,
      "flexible": 8573,
      "Ġunders": 8574,
      "qr": 8575,
      "Ð·": 8576,
      "Ġredis": 8577,
      "Ġfarm": 8578,
      "runner": 8579,
      "Ġ512": 8580,
      "abspath": 8581,
      "installed": 8582,
      "written": 8583,
      "DevOps": 8584,
      "Sw": 8585,
      "Ġquestion": 8586,
      "Ġcases": 8587,
      "2007": 8588,
      "ownership": 8589,
      "AccessControl": 8590,
      "dna": 8591,
      "RoleAssignment": 8592,
      "ĠCollection": 8593,
      "Packet": 8594,
      "inio": 8595,
      "Ġpix": 8596,
      "Ġsdk": 8597,
      "pied": 8598,
      "does": 8599,
      "capture": 8600,
      "scheduled": 8601,
      "Ġreplaced": 8602,
      "initialization": 8603,
      "CAT": 8604,
      "VAR": 8605,
      "front": 8606,
      "stmt": 8607,
      "(\"{": 8608,
      "getenv": 8609,
      "ssss": 8610,
      "ised": 8611,
      "Ġdst": 8612,
      "ternational": 8613,
      "Ġmade": 8614,
      "jit": 8615,
      "kek": 8616,
      "Ġstation": 8617,
      "Ġprovisioned": 8618,
      "negative": 8619,
      "findall": 8620,
      "ilters": 8621,
      "billingAccounts": 8622,
      "Ġsmall": 8623,
      "LRO": 8624,
      "rng": 8625,
      "(\"-": 8626,
      "ĠCA": 8627,
      "words": 8628,
      "browser": 8629,
      "into": 8630,
      "ricing": 8631,
      "sentence": 8632,
      "Association": 8633,
      "Ġcharset": 8634,
      "Ġsamples": 8635,
      "ĠCheckout": 8636,
      "^^^^": 8637,
      "Button": 8638,
      "DU": 8639,
      "Vulnerability": 8640,
      "Ġpi": 8641,
      "columnwise": 8642,
      "website": 8643,
      "Activity": 8644,
      "Interval": 8645,
      "ĠTemplate": 8646,
      "nms": 8647,
      "Ãª": 8648,
      "æį": 8649,
      "Ġrisk": 8650,
      "ĠĠĠĠĊ": 8651,
      "design": 8652,
      "Ġcertificates": 8653,
      "Ġtesting": 8654,
      "Ġseed": 8655,
      "prev": 8656,
      "boolean": 8657,
      "ributes": 8658,
      "CONFIG": 8659,
      "absolute": 8660,
      "eastus": 8661,
      "73": 8662,
      ">.": 8663,
      "Ip": 8664,
      "ĠST": 8665,
      "streaming": 8666,
      "geometry": 8667,
      "actual": 8668,
      "beats": 8669,
      "orderby": 8670,
      "Ġcomponents": 8671,
      "ĠDefines": 8672,
      "DH": 8673,
      "Mutable": 8674,
      "constants": 8675,
      "ĠCO": 8676,
      "ĠOR": 8677,
      "fetcher": 8678,
      "JECT": 8679,
      "BareMetal": 8680,
      "fici": 8681,
      "resourcegroups": 8682,
      "visor": 8683,
      "tele": 8684,
      "sensus": 8685,
      "crease": 8686,
      "LOCK": 8687,
      "Ġphone": 8688,
      "avorite": 8689,
      "Mi": 8690,
      "Ġsl": 8691,
      "ĠOTP": 8692,
      "periments": 8693,
      "ADMIN": 8694,
      "Ġinterface": 8695,
      "Ġattack": 8696,
      "ynchronization": 8697,
      "CreatedByType": 8698,
      "RET": 8699,
      "Ġ(%": 8700,
      "outer": 8701,
      "library": 8702,
      "BBB": 8703,
      "RRR": 8704,
      "Ġexpects": 8705,
      "Random": 8706,
      "Ġut": 8707,
      "clients": 8708,
      "Ġrate": 8709,
      "Ġcos": 8710,
      "NetworkAccess": 8711,
      "products": 8712,
      "ï¼Ī": 8713,
      "ĠClass": 8714,
      "Can": 8715,
      "GROUP": 8716,
      "gpu": 8717,
      "volumes": 8718,
      "liveness": 8719,
      "ĠCan": 8720,
      "=\"\",": 8721,
      "Ġraises": 8722,
      "truth": 8723,
      "Ġchecking": 8724,
      "DefaultErrorResponse": 8725,
      "Ġactivity": 8726,
      "enterprise": 8727,
      "Primary": 8728,
      "Firewall": 8729,
      "Bind": 8730,
      "Json": 8731,
      "immutability": 8732,
      "Ġden": 8733,
      "Ġpreferred": 8734,
      "Ġ|</": 8735,
      "Seconds": 8736,
      "Consumer": 8737,
      "ï¼ī": 8738,
      "ĠAccessToken": 8739,
      "Ġwritten": 8740,
      "Ġimmediately": 8741,
      "GB": 8742,
      "Vis": 8743,
      "ramp": 8744,
      "sink": 8745,
      "remain": 8746,
      "chase": 8747,
      "chrom": 8748,
      "azureautomations": 8749,
      "Ġdisplayed": 8750,
      "domains": 8751,
      "similar": 8752,
      "Headers": 8753,
      "azureautomationsdk": 8754,
      "400": 8755,
      "mqp": 8756,
      "Ġcp": 8757,
      "Ġdeserialize": 8758,
      "ĠCount": 8759,
      "Ġfront": 8760,
      "Ġdiff": 8761,
      "workers": 8762,
      "Ġmodi": 8763,
      "Ġcols": 8764,
      "RunCommand": 8765,
      "Ġextensions": 8766,
      "OTP": 8767,
      "Webhook": 8768,
      "wraps": 8769,
      "PR": 8770,
      "resize": 8771,
      "ĠClientRawResponse": 8772,
      "spaces": 8773,
      "ĠInst": 8774,
      "Configurations": 8775,
      "Ġsym": 8776,
      "devtest": 8777,
      "Ġgood": 8778,
      "ĠThread": 8779,
      "Ġrefactored": 8780,
      "82": 8781,
      "KV": 8782,
      "OLO": 8783,
      "Sales": 8784,
      "kusto": 8785,
      "tm": 8786,
      "zy": 8787,
      "covered": 8788,
      "Ġorg": 8789,
      "versed": 8790,
      "à¸ª": 8791,
      "webpubsub": 8792,
      "Calculate": 8793,
      "Easter": 8794,
      "Lib": 8795,
      "Normal": 8796,
      "ners": 8797,
      "ĠRES": 8798,
      "Ġunknown": 8799,
      "Ġunconditional": 8800,
      "Ġoverrides": 8801,
      "postgresql": 8802,
      "numer": 8803,
      "aurus": 8804,
      "çĶ¨": 8805,
      "\"^": 8806,
      "Ġcm": 8807,
      "Ġpack": 8808,
      "etched": 8809,
      "Ġscoring": 8810,
      "Ġbroker": 8811,
      "persepolis": 8812,
      "assertHolidays": 8813,
      "Ġmapped": 8814,
      "ĠGUID": 8815,
      "phrase": 8816,
      "ITH": 8817,
      "Ġevaluate": 8818,
      "westus": 8819,
      "72": 8820,
      "lso": 8821,
      "Ġhours": 8822,
      "othub": 8823,
      "Ġkeywords": 8824,
      "Ð¾Ð²": 8825,
      "deletion": 8826,
      "DY": 8827,
      "updates": 8828,
      "procedure": 8829,
      "Expi": 8830,
      "Ġdiscount": 8831,
      "Ġresume": 8832,
      "ĠDatastore": 8833,
      "ĠOtherwise": 8834,
      "Ġaut": 8835,
      "ĠCredential": 8836,
      "ĠSession": 8837,
      "Ġlists": 8838,
      "Ġ255": 8839,
      "discount": 8840,
      "Ġflags": 8841,
      "CHAR": 8842,
      "Ġarc": 8843,
      "overnment": 8844,
      "ThroughputSettingsGetResults": 8845,
      "GH": 8846,
      "entifiers": 8847,
      "calc": 8848,
      "spacing": 8849,
      "flat": 8850,
      "Fetcher": 8851,
      "IDEA": 8852,
      "!\")": 8853,
      "Variable": 8854,
      "ģ¯": 8855,
      "Ġcross": 8856,
      "lier": 8857,
      "Ġearly": 8858,
      "Ġtestutils": 8859,
      "CreateOr": 8860,
      "FileClient": 8861,
      "ImageDimensions": 8862,
      "grees": 8863,
      "forwarding": 8864,
      "Ġhandling": 8865,
      "CREATE": 8866,
      "AMPLE": 8867,
      "Elastic": 8868,
      "WIN": 8869,
      "xs": 8870,
      "onical": 8871,
      "('\\": 8872,
      "Ġapplicable": 8873,
      "virtualMachine": 8874,
      "Ġindexing": 8875,
      "Debug": 8876,
      "ĠAssessment": 8877,
      "Prem": 8878,
      "Google": 8879,
      "aff": 8880,
      "Ġmlogger": 8881,
      "Ġuid": 8882,
      "phy": 8883,
      "IX": 8884,
      "PART": 8885,
      "Ġ\"(": 8886,
      "Ġsr": 8887,
      "Ġglossary": 8888,
      "Ġflush": 8889,
      "ularity": 8890,
      "Cookie": 8891,
      "LDAP": 8892,
      "Ġdescribing": 8893,
      "jmeter": 8894,
      "Ġextend": 8895,
      "prices": 8896,
      "Ġexecuted": 8897,
      "Display": 8898,
      "resolvername": 8899,
      "costmanagement": 8900,
      "Socket": 8901,
      "_[": 8902,
      "mac": 8903,
      "algorithms": 8904,
      "ĠAvail": 8905,
      "omit": 8906,
      "ĠRevit": 8907,
      "Expression": 8908,
      "retrieve": 8909,
      "Ġindexer": 8910,
      "foreign": 8911,
      "Delta": 8912,
      "devtestlabs": 8913,
      "ðŁ": 8914,
      "izing": 8915,
      "Ġlogical": 8916,
      "Onnx": 8917,
      "Evaluator": 8918,
      "iliency": 8919,
      "########": 8920,
      "Ġxyxy": 8921,
      "broad": 8922,
      "Ġcsv": 8923,
      "dia": 8924,
      "accuracy": 8925,
      "Ġsec": 8926,
      "optimizer": 8927,
      "cli": 8928,
      "Ġ_(\"": 8929,
      "ĠĠĠĠĠĠĠĠĠĠĠĠĠĠĠĠĠĠĠĠĠĠĠĠĠĠĠĠĠĠĠĠĠĠĠĠĠĠĠĠĠ": 8930,
      "logits": 8931,
      "REMO": 8932,
      "ToDo": 8933,
      "ĠEX": 8934,
      "ĠKeyVault": 8935,
      "antiate": 8936,
      "finger": 8937,
      "Ġgit": 8938,
      "Ġonline": 8939,
      "calculate": 8940,
      "DataType": 8941,
      "Ġcollections": 8942,
      "PISet": 8943,
      "è¡": 8944,
      "Ġconv": 8945,
      "Ġgu": 8946,
      "Ġworking": 8947,
      "\"></": 8948,
      "LabelingJob": 8949,
      "CosmosHttpResponseError": 8950,
      "TS": 8951,
      "Ġem": 8952,
      "Ġitself": 8953,
      "RED": 8954,
      "Retrieve": 8955,
      "Ġreferences": 8956,
      "expired": 8957,
      "related": 8958,
      "helpers": 8959,
      "bulk": 8960,
      "friendly": 8961,
      "Replica": 8962,
      "ĠCategorical": 8963,
      "ĠFloat": 8964,
      "obile": 8965,
      "Ġcomm": 8966,
      "Placement": 8967,
      "Generated": 8968,
      "Ġindicate": 8969,
      "hypothesis": 8970,
      "Ġbytearray": 8971,
      "ENCRYPTION": 8972,
      "mis": 8973,
      "dead": 8974,
      "strand": 8975,
      "Ġaverage": 8976,
      "ĠTEST": 8977,
      "ĠOnPrem": 8978,
      "opts": 8979,
      "gemm": 8980,
      "Supported": 8981,
      "fps": 8982,
      "ĠAsyncClient": 8983,
      "lify": 8984,
      "Ġactually": 8985,
      "CRET": 8986,
      "Ġlibrary": 8987,
      ")(\"": 8988,
      "Categorical": 8989,
      "reply": 8990,
      "enroll": 8991,
      "Ġstrict": 8992,
      "ErrorTarget": 8993,
      "ĠFake": 8994,
      "Ġconversion": 8995,
      "Ġmodify": 8996,
      "activity": 8997,
      "weewx": 8998,
      "Ġconfigurations": 8999,
      "ACTION": 9000,
      "fluent": 9001,
      "Fit": 9002,
      "Ġai": 9003,
      "maint": 9004,
      "READ": 9005,
      "virtualization": 9006,
      "Ġscheduler": 9007,
      "ĠUpdates": 9008,
      "Ġpartner": 9009,
      "capability": 9010,
      "ĠWorkload": 9011,
      "ĠServerless": 9012,
      "getvalue": 9013,
      "Release": 9014,
      "Ġshard": 9015,
      "Temp": 9016,
      "riteria": 9017,
      "INTER": 9018,
      "pairs": 9019,
      "ĠWindows": 9020,
      "LY": 9021,
      "NG": 9022,
      "easter": 9023,
      "member": 9024,
      "ĠQuant": 9025,
      "Ġinp": 9026,
      "Relationship": 9027,
      "Ġgpu": 9028,
      "dependency": 9029,
      "Ġpurpose": 9030,
      "Aggreg": 9031,
      "Val": 9032,
      "baz": 9033,
      "oom": 9034,
      "ĠAlso": 9035,
      "rompt": 9036,
      "ĠNon": 9037,
      "ĠEmail": 9038,
      "moveTo": 9039,
      "Transfer": 9040,
      "Shift": 9041,
      "CONNE": 9042,
      "Offset": 9043,
      "National": 9044,
      "[@": 9045,
      "cing": 9046,
      "·åıĸ": 9047,
      "deserializer": 9048,
      "agn": 9049,
      "ayout": 9050,
      "Ġ198": 9051,
      "ĠVector": 9052,
      "Anchor": 9053,
      "Diagnostic": 9054,
      "Assert": 9055,
      "assertNoHoliday": 9056,
      "fold": 9057,
      "åº": 9058,
      "strg": 9059,
      "Ġinertia": 9060,
      "Ġisn": 9061,
      "ĠCle": 9062,
      "Ġstd": 9063,
      "à¸Ĭ": 9064,
      "Ġouter": 9065,
      "DataFrame": 9066,
      "company": 9067,
      "Ġsubstring": 9068,
      "hubs": 9069,
      "Ġassociation": 9070,
      "ManagedServiceIdentity": 9071,
      "smartphone": 9072,
      "PY": 9073,
      "cv": 9074,
      "alloc": 9075,
      "uman": 9076,
      "mtp": 9077,
      "Ġmarketplace": 9078,
      "vanced": 9079,
      "Migrate": 9080,
      "Publisher": 9081,
      "WE": 9082,
      "recursive": 9083,
      "Ġcpu": 9084,
      "jected": 9085,
      "ĠEach": 9086,
      "ĠProtection": 9087,
      "while": 9088,
      "Ġdependencies": 9089,
      "MongoDb": 9090,
      "dap": 9091,
      "istency": 9092,
      "ĠFriendly": 9093,
      "Ġ197": 9094,
      "Inst": 9095,
      "Ġ`{": 9096,
      "EndpointDeploymentResource": 9097,
      "ĠElement": 9098,
      "ucle": 9099,
      "SECRET": 9100,
      "})\"": 9101,
      "ACK": 9102,
      "ĠActive": 9103,
      "RESPONSE": 9104,
      "FE": 9105,
      "PU": 9106,
      "mc": 9107,
      "Ġquote": 9108,
      "idues": 9109,
      "Enterprise": 9110,
      "Ġimported": 9111,
      "Ġassume": 9112,
      "Ġrestype": 9113,
      "Ġplacement": 9114,
      "cnt": 9115,
      "bi": 9116,
      "utive": 9117,
      "()._": 9118,
      "chunks": 9119,
      "ĠOData": 9120,
      "External": 9121,
      "ĠBirthday": 9122,
      "Ġregular": 9123,
      "Ġreading": 9124,
      "privateLink": 9125,
      "analyzer": 9126,
      "IFI": 9127,
      "]}": 9128,
      "hcp": 9129,
      "Ġcir": 9130,
      "Replace": 9131,
      "Ġfieldname": 9132,
      "freeze": 9133,
      "rouped": 9134,
      "KIND": 9135,
      "Ġarm": 9136,
      "ĠTry": 9137,
      "ialization": 9138,
      "Ġdatetimes": 9139,
      "Ġretention": 9140,
      "sessions": 9141,
      "SasPermissions": 9142,
      "Ġoccur": 9143,
      "wave": 9144,
      "rea": 9145,
      "Ġcpk": 9146,
      "scsi": 9147,
      "conversations": 9148,
      "Ġdelivery": 9149,
      "collect": 9150,
      "Shape": 9151,
      "300": 9152,
      "fecycle": 9153,
      "Ġalt": 9154,
      "ograph": 9155,
      "Ġlonger": 9156,
      "Ġidentified": 9157,
      "Marketplace": 9158,
      "desktopvirtualization": 9159,
      "ynamics": 9160,
      "!\"": 9161,
      "NEXT": 9162,
      "OF": 9163,
      "Ġautonomousdatabasename": 9164,
      "Ġincoming": 9165,
      "ĠOAuth": 9166,
      "ĠSan": 9167,
      "ĠModule": 9168,
      "ĠLists": 9169,
      "Ġmaxpagesize": 9170,
      "Ġchunks": 9171,
      "refund": 9172,
      "aking": 9173,
      "Runner": 9174,
      "DnsResolver": 9175,
      "ãĢ": 9176,
      "Ġcc": 9177,
      "Ġpred": 9178,
      "utures": 9179,
      "00000": 9180,
      "Stats": 9181,
      "ĠGit": 9182,
      "àº±": 9183,
      "Administration": 9184,
      "++": 9185,
      "8000": 9186,
      "BUS": 9187,
      "DigitalTwins": 9188,
      "NING": 9189,
      "multip": 9190,
      "ConnectionCategory": 9191,
[...]
